{
  "version": "1.0",
  "truncation": null,
  "padding": null,
  "added_tokens": [
    {
      "id": 0,
      "content": "<|pad|>",
      "single_word": false,
      "lstrip": false,
      "rstrip": false,
      "normalized": false,
      "special": true
    },
    {
      "id": 1,
      "content": "<|unk|>",
      "single_word": false,
      "lstrip": false,
      "rstrip": false,
      "normalized": false,
      "special": true
    },
    {
      "id": 2,
      "content": "<|endoftext|>",
      "single_word": false,
      "lstrip": false,
      "rstrip": false,
      "normalized": false,
      "special": true
    },
    {
      "id": 3,
      "content": "<|im_start|>",
      "single_word": false,
      "lstrip": false,
      "rstrip": false,
      "normalized": false,
      "special": true
    },
    {
      "id": 4,
      "content": "<|im_end|>",
      "single_word": false,
      "lstrip": false,
      "rstrip": false,
      "normalized": false,
      "special": true
    }
  ],
  "normalizer": null,
  "pre_tokenizer": {
    "type": "ByteLevel",
    "add_prefix_space": false,
    "trim_offsets": true,
    "use_regex": true
  },
  "post_processor": {
    "type": "TemplateProcessing",
    "single": [
      {
        "Sequence": {
          "id": "A",
          "type_id": 0
        }
      }
    ],
    "pair": [
      {
        "Sequence": {
          "id": "A",
          "type_id": 0
        }
      },
      {
        "Sequence": {
          "id": "B",
          "type_id": 1
        }
      }
    ],
    "special_tokens": {}
  },
  "decoder": {
    "type": "ByteLevel",
    "add_prefix_space": true,
    "trim_offsets": true,
    "use_regex": true
  },
  "model": {
    "type": "BPE",
    "dropout": null,
    "unk_token": "<|unk|>",
    "continuing_subword_prefix": null,
    "end_of_word_suffix": null,
    "fuse_unk": false,
    "byte_fallback": false,
    "ignore_merges": false,
    "vocab": {
      "<|pad|>": 0,
      "<|unk|>": 1,
      "<|endoftext|>": 2,
      "<|im_start|>": 3,
      "<|im_end|>": 4,
      "!": 5,
      "\"": 6,
      "#": 7,
      "$": 8,
      "%": 9,
      "&": 10,
      "'": 11,
      "(": 12,
      ")": 13,
      "*": 14,
      "+": 15,
      ",": 16,
      "-": 17,
      ".": 18,
      "/": 19,
      "0": 20,
      "1": 21,
      "2": 22,
      "3": 23,
      "4": 24,
      "5": 25,
      "6": 26,
      "7": 27,
      "8": 28,
      "9": 29,
      ":": 30,
      ";": 31,
      "<": 32,
      "=": 33,
      ">": 34,
      "?": 35,
      "@": 36,
      "A": 37,
      "B": 38,
      "C": 39,
      "D": 40,
      "E": 41,
      "F": 42,
      "G": 43,
      "H": 44,
      "I": 45,
      "J": 46,
      "K": 47,
      "L": 48,
      "M": 49,
      "N": 50,
      "O": 51,
      "P": 52,
      "Q": 53,
      "R": 54,
      "S": 55,
      "T": 56,
      "U": 57,
      "V": 58,
      "W": 59,
      "X": 60,
      "Y": 61,
      "Z": 62,
      "[": 63,
      "\\": 64,
      "]": 65,
      "^": 66,
      "_": 67,
      "`": 68,
      "a": 69,
      "b": 70,
      "c": 71,
      "d": 72,
      "e": 73,
      "f": 74,
      "g": 75,
      "h": 76,
      "i": 77,
      "j": 78,
      "k": 79,
      "l": 80,
      "m": 81,
      "n": 82,
      "o": 83,
      "p": 84,
      "q": 85,
      "r": 86,
      "s": 87,
      "t": 88,
      "u": 89,
      "v": 90,
      "w": 91,
      "x": 92,
      "y": 93,
      "z": 94,
      "{": 95,
      "|": 96,
      "}": 97,
      "~": 98,
      "¡": 99,
      "¢": 100,
      "£": 101,
      "¤": 102,
      "¥": 103,
      "¦": 104,
      "§": 105,
      "¨": 106,
      "©": 107,
      "ª": 108,
      "«": 109,
      "¬": 110,
      "®": 111,
      "¯": 112,
      "°": 113,
      "±": 114,
      "²": 115,
      "³": 116,
      "´": 117,
      "µ": 118,
      "¶": 119,
      "·": 120,
      "¸": 121,
      "¹": 122,
      "º": 123,
      "»": 124,
      "¼": 125,
      "½": 126,
      "¾": 127,
      "¿": 128,
      "À": 129,
      "Á": 130,
      "Â": 131,
      "Ã": 132,
      "Ä": 133,
      "Å": 134,
      "Æ": 135,
      "Ç": 136,
      "È": 137,
      "É": 138,
      "Ê": 139,
      "Ë": 140,
      "Ì": 141,
      "Í": 142,
      "Î": 143,
      "Ï": 144,
      "Ð": 145,
      "Ñ": 146,
      "Ò": 147,
      "Ó": 148,
      "Ô": 149,
      "Õ": 150,
      "Ö": 151,
      "×": 152,
      "Ø": 153,
      "Ù": 154,
      "Ú": 155,
      "Û": 156,
      "Ü": 157,
      "Ý": 158,
      "Þ": 159,
      "ß": 160,
      "à": 161,
      "á": 162,
      "â": 163,
      "ã": 164,
      "ä": 165,
      "å": 166,
      "æ": 167,
      "ç": 168,
      "è": 169,
      "é": 170,
      "ê": 171,
      "ë": 172,
      "ì": 173,
      "í": 174,
      "î": 175,
      "ï": 176,
      "ð": 177,
      "ñ": 178,
      "ò": 179,
      "ó": 180,
      "ô": 181,
      "õ": 182,
      "ö": 183,
      "÷": 184,
      "ø": 185,
      "ù": 186,
      "ú": 187,
      "û": 188,
      "ü": 189,
      "ý": 190,
      "þ": 191,
      "ÿ": 192,
      "Ā": 193,
      "ā": 194,
      "Ă": 195,
      "ă": 196,
      "Ą": 197,
      "ą": 198,
      "Ć": 199,
      "ć": 200,
      "Ĉ": 201,
      "ĉ": 202,
      "Ċ": 203,
      "ċ": 204,
      "Č": 205,
      "č": 206,
      "Ď": 207,
      "ď": 208,
      "Đ": 209,
      "đ": 210,
      "Ē": 211,
      "ē": 212,
      "Ĕ": 213,
      "ĕ": 214,
      "Ė": 215,
      "ė": 216,
      "Ę": 217,
      "ę": 218,
      "Ě": 219,
      "ě": 220,
      "Ĝ": 221,
      "ĝ": 222,
      "Ğ": 223,
      "ğ": 224,
      "Ġ": 225,
      "ġ": 226,
      "Ģ": 227,
      "ģ": 228,
      "Ĥ": 229,
      "ĥ": 230,
      "Ħ": 231,
      "ħ": 232,
      "Ĩ": 233,
      "ĩ": 234,
      "Ī": 235,
      "ī": 236,
      "Ĭ": 237,
      "ĭ": 238,
      "Į": 239,
      "į": 240,
      "İ": 241,
      "ı": 242,
      "Ĳ": 243,
      "ĳ": 244,
      "Ĵ": 245,
      "ĵ": 246,
      "Ķ": 247,
      "ķ": 248,
      "ĸ": 249,
      "Ĺ": 250,
      "ĺ": 251,
      "Ļ": 252,
      "ļ": 253,
      "Ľ": 254,
      "ľ": 255,
      "Ŀ": 256,
      "ŀ": 257,
      "Ł": 258,
      "ł": 259,
      "Ń": 260,
      "ãĢ": 261,
      "ï¼": 262,
      "ä¸": 263,
      "ï¼Į": 264,
      "ä¹": 265,
      "äº": 266,
      "ãĢĤ": 267,
      "åħ": 268,
      "ä»": 269,
      "å¤": 270,
      "åı": 271,
      "ä¹ĭ": 272,
      "æľ": 273,
      "åį": 274,
      "å®": 275,
      "å°": 276,
      "åĲ": 277,
      "èĢ": 278,
      "ä»¥": 279,
      "åŃ": 280,
      "æĽ": 281,
      "ä¸º": 282,
      "æĹ": 283,
      "å¹": 284,
      "ä¸į": 285,
      "åĪ": 286,
      "å·": 287,
      "ä½": 288,
      "åĨ": 289,
      "æĽ°": 290,
      "èĩ": 291,
      "æŃ": 292,
      "æĺ": 293,
      "è¯": 294,
      "ä¹Ł": 295,
      "å¾": 296,
      "åĽ": 297,
      "å¸": 298,
      "çİ": 299,
      "ãĢĲ": 300,
      "ãĢĳ": 301,
      "æķ": 302,
      "éĥ": 303,
      "äºİ": 304,
      "åħ¶": 305,
      "è¿": 306,
      "æī": 307,
      "äºº": 308,
      "éģ": 309,
      "åŃĲ": 310,
      "æĪ": 311,
      "å¼": 312,
      "åº": 313,
      "èĢĮ": 314,
      "æľī": 315,
      "çİĭ": 316,
      "æĸ": 317,
      "çĶ": 318,
      "ä¼": 319,
      "éĺ": 320,
      "ãĢģ": 321,
      "éĻ": 322,
      "ãĢĢ": 323,
      "è°": 324,
      "çĽ": 325,
      "å¤§": 326,
      "è´": 327,
      "åĨĽ": 328,
      "æĿ": 329,
      "å±": 330,
      "åľ": 331,
      "åįģ": 332,
      "èµ": 333,
      "å·ŀ": 334,
      "è¡": 335,
      "å°Ĩ": 336,
      "åİ": 337,
      "æ°": 338,
      "å¿": 339,
      "æ±": 340,
      "è®": 341,
      "ç¿": 342,
      "èĢħ": 343,
      "å¹´": 344,
      "éĹ": 345,
      "ç»": 346,
      "å½": 347,
      "ä¾": 348,
      "ä¸Ń": 349,
      "è§": 350,
      "åĬ": 351,
      "å¥": 352,
      "ç§": 353,
      "åĩ": 354,
      "å¤ª": 355,
      "éĢ": 356,
      "å¯": 357,
      "äºĮ": 358,
      "ç¥": 359,
      "ç¿»": 360,
      "æīĢ": 361,
      "çļ": 362,
      "çŁ": 363,
      "åĲİ": 364,
      "çĻ": 365,
      "ä¸ī": 366,
      "å¸Ŀ": 367,
      "è¾": 368,
      "åĳ": 369,
      "ä¸Ģ": 370,
      "ä¸ĭ": 371,
      "ä¸Ĭ": 372,
      "æ²": 373,
      "éĩ": 374,
      "äºĭ": 375,
      "æľĪ": 376,
      "åħ¬": 377,
      "æĻ": 378,
      "å¦": 379,
      "æĶ": 380,
      "åĮ": 381,
      "ï¼ļ": 382,
      "ç«": 383,
      "ä½¿": 384,
      "èĩª": 385,
      "èĩ³": 386,
      "ä¸İ": 387,
      "åŁ": 388,
      "åĽ½": 389,
      "å¤©": 390,
      "æĹł": 391,
      "ä¹¦": 392,
      "éķ": 393,
      "æģ": 394,
      "ä¿": 395,
      "åı²": 396,
      "èĥ": 397,
      "åįĹ": 398,
      "éļ": 399,
      "ç½": 400,
      "ä»İ": 401,
      "æĢ": 402,
      "äºĶ": 403,
      "æµ": 404,
      "æ³": 405,
      "æĺ¯": 406,
      "å£": 407,
      "è¨": 408,
      "éĺ³": 409,
      "è¨Ģ": 410,
      "æĹ¶": 411,
      "åľ¨": 412,
      "ä¸ľ": 413,
      "åŁİ": 414,
      "éĽ": 415,
      "åıĪ": 416,
      "è¥": 417,
      "é©": 418,
      "çĪ": 419,
      "éª": 420,
      "åħµ": 421,
      "æķħ": 422,
      "èĻ": 423,
      "çĻ¾": 424,
      "æŃ¦": 425,
      "éĿ": 426,
      "åıĬ": 427,
      "æ¯": 428,
      "å§": 429,
      "éĤ": 430,
      "èĭ": 431,
      "çŃ": 432,
      "åĽĽ": 433,
      "è½": 434,
      "æ¬": 435,
      "æĸĩ": 436,
      "è¡Į": 437,
      "å°ĨåĨĽ": 438,
      "æŃ¤": 439,
      "å®ī": 440,
      "çļĨ": 441,
      "éĥ¡": 442,
      "çĦ": 443,
      "å»": 444,
      "ä¹ĥ": 445,
      "å¹³": 446,
      "çĽ¸": 447,
      "èĩ£": 448,
      "ä»Ĭ": 449,
      "æĥ": 450,
      "åı¯": 451,
      "çº": 452,
      "ãĢĮ": 453,
      "ãĢį": 454,
      "æĹ¥": 455,
      "åħĥ": 456,
      "è°ĵ": 457,
      "è¥¿": 458,
      "è¯¸": 459,
      "ä»¤": 460,
      "éķ¿": 461,
      "å¾Ĺ": 462,
      "åİ¿": 463,
      "æ¸": 464,
      "è§ģ": 465,
      "åĪĻ": 466,
      "åĩº": 467,
      "å¤į": 468,
      "çī": 469,
      "æĭ": 470,
      "éŁ": 471,
      "å¦Ĥ": 472,
      "ï¼ļãĢĮ": 473,
      "é¢": 474,
      "é«": 475,
      "åı¸": 476,
      "ç¦": 477,
      "åĮĹ": 478,
      "èį": 479,
      "æĦ": 480,
      "æ±ī": 481,
      "éģĵ": 482,
      "åħ¥": 483,
      "äºĳ": 484,
      "ĊãĢĢ": 485,
      "çķ": 486,
      "æİ": 487,
      "å±±": 488,
      "ç¾": 489,
      "åħŃ": 490,
      "æľª": 491,
      "å®Ī": 492,
      "æĺİ": 493,
      "ä¹ī": 494,
      "åī": 495,
      "é£": 496,
      "éĺ²": 497,
      "çŃī": 498,
      "ä¾¯": 499,
      "ç¤": 500,
      "æŃ£": 501,
      "åĲĮ": 502,
      "ä¸»": 503,
      "å®ĺ": 504,
      "éĥ½": 505,
      "å²": 506,
      "éŃ": 507,
      "ä½ķ": 508,
      "éģ£": 509,
      "æĤ": 510,
      "ä¸ĩ": 511,
      "ä½Ļ": 512,
      "é©¬": 513,
      "åįĥ": 514,
      "âĢ": 515,
      "æľĿ": 516,
      "åĭ": 517,
      "ãĢĤãĢį": 518,
      "ç¥ĸ": 519,
      "ä¸ĸ": 520,
      "å£«": 521,
      "åĴ": 522,
      "åĲį": 523,
      "å°ļ": 524,
      "éŃı": 525,
      "èĪ": 526,
      "æ¬²": 527,
      "ç«ĭ": 528,
      "åĪº": 529,
      "æĮ": 530,
      "æŀ": 531,
      "å¤«": 532,
      "èģ": 533,
      "æĬ": 534,
      "æķ°": 535,
      "åĲĽ": 536,
      "çĸ": 537,
      "é¡": 538,
      "çŁ¥": 539,
      "è¶": 540,
      "åľ°": 541,
      "æ®": 542,
      "èĥ½": 543,
      "ä¸ĥ": 544,
      "çļĩ": 545,
      "èİ": 546,
      "å¸Ī": 547,
      "äº¦": 548,
      "åĪºåı²": 549,
      "æ·": 550,
      "çģ": 551,
      "çĬ": 552,
      "æŃ»": 553,
      "å½ĵ": 554,
      "é½": 555,
      "é»": 556,
      "æ²³": 557,
      "ç´": 558,
      "èĬ": 559,
      "éĹ¨": 560,
      "åĿ": 561,
      "ä¹Ŀ": 562,
      "æĪĲ": 563,
      "æ°´": 564,
      "æ´": 565,
      "å·¦": 566,
      "æĻĭ": 567,
      "åĳ¨": 568,
      "åħĪ": 569,
      "éģĤ": 570,
      "ä¾į": 571,
      "é«ĺ": 572,
      "çĶŁ": 573,
      "è¯ı": 574,
      "å¸¸": 575,
      "æĸ¹": 576,
      "é½Ĳ": 577,
      "ç¤¼": 578,
      "åħ«": 579,
      "åĨħ": 580,
      "éªĳ": 581,
      "çĶ¨": 582,
      "å¹¶": 583,
      "åĪĿ": 584,
      "ä½ľ": 585,
      "çĦ¶": 586,
      "éĹ»": 587,
      "å·ŀåĪºåı²": 588,
      "è¿ĺ": 589,
      "ä¼Ĺ": 590,
      "éĿŀ": 591,
      "èĭ¥": 592,
      "åīį": 593,
      "åĳ½": 594,
      "åį³": 595,
      "éĻµ": 596,
      "å·²": 597,
      "æ¢": 598,
      "å®¶": 599,
      "å®Ĺ": 600,
      "éŁ³": 601,
      "æ¡": 602,
      "çĭ": 603,
      "æĿĢ": 604,
      "æ°ı": 605,
      "åĵ": 606,
      "å±ŀ": 607,
      "æ°ĳ": 608,
      "è±": 609,
      "åĸ": 610,
      "çŁ£": 611,
      "åįĴ": 612,
      "ç½®": 613,
      "è¿Ľ": 614,
      "çĲ": 615,
      "èĤ": 616,
      "å¤ļ": 617,
      "éħ": 618,
      "è¢": 619,
      "æł": 620,
      "åº¦": 621,
      "éĥİ": 622,
      "æ±Ł": 623,
      "å°ģ": 624,
      "å¤ĸ": 625,
      "ä¼ł": 626,
      "æĿ¥": 627,
      "éĻĪ": 628,
      "åħī": 629,
      "ç©": 630,
      "èī": 631,
      "ç§¦": 632,
      "å¿Ĺ": 633,
      "åĽł": 634,
      "å±ħ": 635,
      "åı³": 636,
      "éĩĮ": 637,
      "åĪĨ": 638,
      "å¿ħ": 639,
      "åı¤": 640,
      "å½Ĵ": 641,
      "å¼Ł": 642,
      "ç¬": 643,
      "ä»¥ä¸º": 644,
      "å®«": 645,
      "èĬĤ": 646,
      "çĪ¶": 647,
      "å»º": 648,
      "çľ": 649,
      "åĪĺ": 650,
      "èĲ": 651,
      "æĹ¢": 652,
      "å°ļä¹¦": 653,
      "åĶ": 654,
      "ä½į": 655,
      "å®ļ": 656,
      "å¼ł": 657,
      "å¿ĥ": 658,
      "èĳ": 659,
      "å°ī": 660,
      "å§ĭ": 661,
      "åĬŁ": 662,
      "éĴ": 663,
      "åħ´": 664,
      "æľ¬": 665,
      "åŃĹ": 666,
      "éĩį": 667,
      "åŃĿ": 668,
      "å°ĳ": 669,
      "å¹¿": 670,
      "çĿ": 671,
      "ç§°": 672,
      "åºľ": 673,
      "å´": 674,
      "ä¹Ĳ": 675,
      "åİ»": 676,
      "æ¢ģ": 677,
      "ï¼Ľ": 678,
      "è¯·": 679,
      "éĢļ": 680,
      "åŃĻ": 681,
      "æĿİ": 682,
      "å¾·": 683,
      "æį": 684,
      "æ¥": 685,
      "ç¨": 686,
      "çĮ": 687,
      "è½¦": 688,
      "å®ľ": 689,
      "æħ": 690,
      "éĥ¨": 691,
      "çŁ³": 692,
      "æ³ķ": 693,
      "å¾ģ": 694,
      "åĲı": 695,
      "å¨": 696,
      "çĻ½": 697,
      "åıį": 698,
      "æľį": 699,
      "æĪĳ": 700,
      "éĻį": 701,
      "å°ı": 702,
      "åĬł": 703,
      "åį·": 704,
      "ï¼Ł": 705,
      "è¿ģ": 706,
      "å¤©ä¸ĭ": 707,
      "äº²": 708,
      "é¦": 709,
      "åį¿": 710,
      "çĦī": 711,
      "æĶ¹": 712,
      "åıĹ": 713,
      "ä¹İ": 714,
      "ç»ı": 715,
      "å¼Ĥ": 716,
      "åĲ¾": 717,
      "å¤ı": 718,
      "éĽĨ": 719,
      "èĻ½": 720,
      "æĪĺ": 721,
      "è·": 722,
      "é£Ł": 723,
      "çĽ´": 724,
      "çł": 725,
      "å¤ªå®Ī": 726,
      "å®£": 727,
      "éķĩ": 728,
      "çİĩ": 729,
      "æĻ¯": 730,
      "åĴĮ": 731,
      "è§£": 732,
      "å¼Ģ": 733,
      "èµ·": 734,
      "é¾": 735,
      "é»Ħ": 736,
      "æĶ»": 737,
      "æµ·": 738,
      "èĮ": 739,
      "ç¥ŀ": 740,
      "èµĲ": 741,
      "æĶ¿": 742,
      "ä¸¾": 743,
      "æ²»": 744,
      "ç²": 745,
      "äº¬": 746,
      "éĩĳ": 747,
      "ç¼": 748,
      "äºĮåįģ": 749,
      "æĺ¥": 750,
      "æĪĸ": 751,
      "è´¥": 752,
      "çĶļ": 753,
      "åĸĦ": 754,
      "åıĸ": 755,
      "åĪ¶": 756,
      "åıĳ": 757,
      "èº": 758,
      "ç®": 759,
      "æĭľ": 760,
      "è®®": 761,
      "âĢľ": 762,
      "çł´": 763,
      "èĸ": 764,
      "âĢĿ": 765,
      "ä»£": 766,
      "é¥": 767,
      "åºĶ": 768,
      "åĢ": 769,
      "èµµ": 770,
      "ä¹±": 771,
      "æ¶": 772,
      "åĲ´": 773,
      "å¾Ĳ": 774,
      "éĹ®": 775,
      "é¢Ĩ": 776,
      "ç½ª": 777,
      "éľ": 778,
      "è´¼": 779,
      "ä¿¡": 780,
      "å¾¡": 781,
      "æĦı": 782,
      "äº¡": 783,
      "è¡¨": 784,
      "å¥ı": 785,
      "éĻ¤": 786,
      "æ±Ĥ": 787,
      "ä¼¯": 788,
      "åĩ»": 789,
      "å¤ªåŃĲ": 790,
      "ä»ª": 791,
      "åĲĪ": 792,
      "æ°¸": 793,
      "çª": 794,
      "æ¥ļ": 795,
      "å¾Ĵ": 796,
      "ä¸´": 797,
      "æĹ§": 798,
      "å°½": 799,
      "è¿ĩ": 800,
      "å¥ī": 801,
      "ç§ĭ": 802,
      "å¤§å¤«": 803,
      "åģ": 804,
      "æĪ·": 805,
      "å¨ģ": 806,
      "é£İ": 807,
      "ç«ł": 808,
      "è´¤": 809,
      "è£": 810,
      "çĬ¹": 811,
      "æŁ": 812,
      "å¥³": 813,
      "å¢": 814,
      "æµģ": 815,
      "ï¼ļâĢľ": 816,
      "å®ĭ": 817,
      "æ¯į": 818,
      "çı": 819,
      "å¤±": 820,
      "çĿ£": 821,
      "è®¨": 822,
      "æĺĮ": 823,
      "è®¸": 824,
      "è¶³": 825,
      "åĲĦ": 826,
      "å§ĵ": 827,
      "éĤĳ": 828,
      "æĽ´": 829,
      "æĸ°": 830,
      "å¸ħ": 831,
      "åŃ¦": 832,
      "ä¸įåı¯": 833,
      "å®ŀ": 834,
      "è°ĭ": 835,
      "èİ«": 836,
      "æķ£": 837,
      "åı·": 838,
      "æļ": 839,
      "é¸": 840,
      "å¿ł": 841,
      "ä¸įèĥ½": 842,
      "é²": 843,
      "éļ¾": 844,
      "èĢ³": 845,
      "åıĤ": 846,
      "ç±": 847,
      "ä»»": 848,
      "åĽº": 849,
      "æĢĿ": 850,
      "å¼ķ": 851,
      "åĥ": 852,
      "åĬĽ": 853,
      "æĺŁ": 854,
      "ä¸ļ": 855,
      "åł": 856,
      "æ´Ľ": 857,
      "çī©": 858,
      "æĺĵ": 859,
      "çĶ²": 860,
      "åħĥå¹´": 861,
      "ä¸Ķ": 862,
      "è¯Ľ": 863,
      "æĽ¹": 864,
      "åĶĲ": 865,
      "çķĻ": 866,
      "ä¼ļ": 867,
      "å°Ħ": 868,
      "éĵ": 869,
      "æ»": 870,
      "äºĮå¹´": 871,
      "é¾Ļ": 872,
      "èº«": 873,
      "æĺŃ": 874,
      "éĹ´": 875,
      "è´µ": 876,
      "æ¸ħ": 877,
      "çĪµ": 878,
      "çĶ±": 879,
      "è®°": 880,
      "ä¸ŀ": 881,
      "æľĽ": 882,
      "åħĦ": 883,
      "ç»Ī": 884,
      "èģ²": 885,
      "å¥½": 886,
      "î¨": 887,
      "åĤ": 888,
      "æīį": 889,
      "æķ¢": 890,
      "å¤Ħ": 891,
      "æ·±": 892,
      "å®¹": 893,
      "ï¼ģ": 894,
      "å¤§å°ĨåĨĽ": 895,
      "è¾ŀ": 896,
      "åº·": 897,
      "çĥ": 898,
      "ä¸īå¹´": 899,
      "åı¸é©¬": 900,
      "æµİ": 901,
      "åı£": 902,
      "åºŁ": 903,
      "ä¼Ĳ": 904,
      "çĽĬ": 905,
      "ä»ģ": 906,
      "çĶ°": 907,
      "ç´¢": 908,
      "å»¶": 909,
      "åĿĲ": 910,
      "åĹ": 911,
      "é¦ĸ": 912,
      "è¦": 913,
      "å®¤": 914,
      "çĸ¾": 915,
      "éĶ": 916,
      "æĵ": 917,
      "æĸ©": 918,
      "äºİæĺ¯": 919,
      "å®ģ": 920,
      "åĪ©": 921,
      "éĥĳ": 922,
      "è°·": 923,
      "è§Ĥ": 924,
      "æķ¬": 925,
      "ä¸ģ": 926,
      "æī§": 927,
      "é«Ļ": 928,
      "è¿ľ": 929,
      "çºª": 930,
      "çĲĨ": 931,
      "å²Ĥ": 932,
      "åįģäºĮ": 933,
      "æ³¨": 934,
      "å²ģ": 935,
      "çĩ": 936,
      "åį«": 937,
      "æĿĥ": 938,
      "å¯»": 939,
      "è®º": 940,
      "æį®": 941,
      "å·±": 942,
      "è¡£": 943,
      "è®¡": 944,
      "åįİ": 945,
      "èĢĥ": 946,
      "åºĻ": 947,
      "æŃ¢": 948,
      "çĶ³": 949,
      "èĩ´": 950,
      "åĺ": 951,
      "èĥľ": 952,
      "èĴ": 953,
      "æī¿": 954,
      "æĤī": 955,
      "æĿ¨": 956,
      "å¾Ģ": 957,
      "åĳĬ": 958,
      "åľŁ": 959,
      "æı": 960,
      "å¾³": 961,
      "å¤ªåĲİ": 962,
      "ĊĊãĢĢ": 963,
      "åİŁ": 964,
      "åı°": 965,
      "æŀĹ": 966,
      "è¿½": 967,
      "é¼": 968,
      "çĮ®": 969,
      "æ®¿": 970,
      "åı¬": 971,
      "èĥ¡": 972,
      "æ¹": 973,
      "åĪ«": 974,
      "åħĭ": 975,
      "ä¹ĺ": 976,
      "å¤ĩ": 977,
      "åŀ": 978,
      "åĦ": 979,
      "åħ¼": 980,
      "åħ±": 981,
      "å¹²": 982,
      "å£°": 983,
      "åľ£": 984,
      "åħį": 985,
      "çĽĽ": 986,
      "å¤©åŃĲ": 987,
      "ä»Ĩ": 988,
      "æľĶ": 989,
      "äº®": 990,
      "ä»²": 991,
      "æ·®": 992,
      "å¤ľ": 993,
      "å¤·": 994,
      "è¯Ń": 995,
      "å¹¸": 996,
      "æ¬¡": 997,
      "åįģä¸Ģ": 998,
      "èµ°": 999,
      "åıĶ": 1000,
      "ãĢĤâĢĿ": 1001,
      "åĴ¸": 1002,
      "éĤª": 1003,
      "åįļ": 1004,
      "å¯¹": 1005,
      "æģ¶": 1006,
      "ä¸įå¾Ĺ": 1007,
      "æ°Ķ": 1008,
      "çĪ²": 1009,
      "çĹ": 1010,
      "æİĪ": 1011,
      "æľ±": 1012,
      "çľģ": 1013,
      "ä¼ı": 1014,
      "æ¯ı": 1015,
      "çĽĳ": 1016,
      "åĺī": 1017,
      "èĶ": 1018,
      "è¿ĳ": 1019,
      "èª": 1020,
      "åĩ¡": 1021,
      "éĻĽ": 1022,
      "å·¦åı³": 1023,
      "ä¸¤": 1024,
      "çģµ": 1025,
      "ç¦Ħ": 1026,
      "ç´ł": 1027,
      "çĽĸ": 1028,
      "èľ": 1029,
      "å¥´": 1030,
      "ä¿Ŀ": 1031,
      "æº": 1032,
      "èĹ": 1033,
      "æ±Ŀ": 1034,
      "è±«": 1035,
      "æģĲ": 1036,
      "éħĴ": 1037,
      "æĮģ": 1038,
      "éĿĴ": 1039,
      "èĲ¥": 1040,
      "æł¡": 1041,
      "å¥Ķ": 1042,
      "ä¿®": 1043,
      "é«ĺç¥ĸ": 1044,
      "åĹ£": 1045,
      "åħ¸": 1046,
      "æĺ¾": 1047,
      "éĻĽä¸ĭ": 1048,
      "æĢĢ": 1049,
      "è·¯": 1050,
      "è¢«": 1051,
      "å°Ŀ": 1052,
      "ä¾¿": 1053,
      "è¾°": 1054,
      "åĻ": 1055,
      "çĳ": 1056,
      "å»·": 1057,
      "åħ³": 1058,
      "è¶Ĭ": 1059,
      "èĢģ": 1060,
      "äº¤": 1061,
      "åŃĶ": 1062,
      "éļı": 1063,
      "çĭ¬": 1064,
      "èī¯": 1065,
      "ç¬¬": 1066,
      "éļĲ": 1067,
      "éŁ©": 1068,
      "éĥ½çĿ£": 1069,
      "æĥŁ": 1070,
      "å·Ŀ": 1071,
      "èĻı": 1072,
      "ä¸§": 1073,
      "åĨ¬": 1074,
      "å°±": 1075,
      "æī¶": 1076,
      "æīĢä»¥": 1077,
      "å¯Ĩ": 1078,
      "èİ·": 1079,
      "éĢĢ": 1080,
      "è¾Ľ": 1081,
      "ä¹¡": 1082,
      "ãĢĬ": 1083,
      "ãĢĭ": 1084,
      "æĶ¶": 1085,
      "çĩķ": 1086,
      "æĥ§": 1087,
      "ä¾įä¸Ń": 1088,
      "éĽĨè§£": 1089,
      "çĸĳ": 1090,
      "ä¹ħ": 1091,
      "æ¯Ķ": 1092,
      "æ½": 1093,
      "çķ¥": 1094,
      "å¦»": 1095,
      "èī²": 1096,
      "è¢Ń": 1097,
      "è¥Ħ": 1098,
      "éĽį": 1099,
      "èģĮ": 1100,
      "éģĹ": 1101,
      "è¾ħ": 1102,
      "æģ©": 1103,
      "æĮī": 1104,
      "æĢĴ": 1105,
      "ä¸īåįģ": 1106,
      "èĢĮä¸į": 1107,
      "è½¬": 1108,
      "å´ĩ": 1109,
      "éĢĨ": 1110,
      "å±¯": 1111,
      "è¯Ĺ": 1112,
      "åŃ£": 1113,
      "åĶ¯": 1114,
      "èĪį": 1115,
      "æĢ§": 1116,
      "æĥħ": 1117,
      "æŃ£ä¹ī": 1118,
      "ç»Ļ": 1119,
      "åĨł": 1120,
      "å¡": 1121,
      "ç¥Ń": 1122,
      "å¸ĥ": 1123,
      "å°Ĭ": 1124,
      "ç©º": 1125,
      "å®³": 1126,
      "èį£": 1127,
      "åĪĹ": 1128,
      "è¯»": 1129,
      "åĽ´": 1130,
      "åĲ¬": 1131,
      "éĢģ": 1132,
      "åĪĳ": 1133,
      "å¾Ļ": 1134,
      "é©¾": 1135,
      "é¡º": 1136,
      "è½»": 1137,
      "çģŃ": 1138,
      "æĴ": 1139,
      "åº¶": 1140,
      "èįĨ": 1141,
      "äººä¹Ł": 1142,
      "æĩ": 1143,
      "åİĨ": 1144,
      "æ¨": 1145,
      "è¡ŀ": 1146,
      "åĲķ": 1147,
      "èľĢ": 1148,
      "åĽ¾": 1149,
      "è¿ŀ": 1150,
      "ä¿±": 1151,
      "çİĦ": 1152,
      "åµ": 1153,
      "å¤´": 1154,
      "æ¡ĵ": 1155,
      "ç»Ł": 1156,
      "ä¹Ļ": 1157,
      "åıĺ": 1158,
      "éģĩ": 1159,
      "è½½": 1160,
      "æ¸¸": 1161,
      "ä¸ĳ": 1162,
      "æĺĶ": 1163,
      "é¹": 1164,
      "æĿľ": 1165,
      "åķ": 1166,
      "å¿§": 1167,
      "å©": 1168,
      "é²ģ": 1169,
      "æķĳ": 1170,
      "åĮĸ": 1171,
      "åĬ¨": 1172,
      "çĨ": 1173,
      "åĽĽå¹´": 1174,
      "è¯ļ": 1175,
      "éĺ´": 1176,
      "è¾¾": 1177,
      "å¤ªç¥ĸ": 1178,
      "æľ¨": 1179,
      "è±¡": 1180,
      "æ¡Ī": 1181,
      "éģ£ä½¿": 1182,
      "è°ĵä¹ĭ": 1183,
      "æ³°": 1184,
      "æĥł": 1185,
      "å¾ħ": 1186,
      "æĦ¿": 1187,
      "çĬ¯": 1188,
      "åİļ": 1189,
      "åħ¨": 1190,
      "è¯¸ä¾¯": 1191,
      "æģŃ": 1192,
      "å¸¸ä¾į": 1193,
      "å®Ŀ": 1194,
      "åĲĳ": 1195,
      "çº³": 1196,
      "æ£": 1197,
      "å£¬": 1198,
      "ä¸¹": 1199,
      "è°¢": 1200,
      "è¯´": 1201,
      "èµ¦": 1202,
      "èĬĤåº¦": 1203,
      "èĮĥ": 1204,
      "æŃ¦å¸Ŀ": 1205,
      "çĸı": 1206,
      "åĵī": 1207,
      "å°Ķ": 1208,
      "æĽ²": 1209,
      "å®¢": 1210,
      "çĹħ": 1211,
      "åįķ": 1212,
      "åĻ¨": 1213,
      "æķĻ": 1214,
      "æī¬": 1215,
      "çĻ»": 1216,
      "åıĤåĨĽ": 1217,
      "çĴ": 1218,
      "éļĨ": 1219,
      "éĦ": 1220,
      "åºļ": 1221,
      "ç¦ģ": 1222,
      "èĲ§": 1223,
      "èĽ": 1224,
      "çİī": 1225,
      "æľķ": 1226,
      "å¯ĩ": 1227,
      "è¯£": 1228,
      "åħļ": 1229,
      "æĪĬ": 1230,
      "çļĩå¸Ŀ": 1231,
      "çĪ±": 1232,
      "æĸ¯": 1233,
      "æľ«": 1234,
      "ç§ģ": 1235,
      "æģ¯": 1236,
      "è¯¸åĨĽ": 1237,
      "çīĽ": 1238,
      "æĳ": 1239,
      "ä¸Ńä¹¦": 1240,
      "ä¼ĳ": 1241,
      "æŀģ": 1242,
      "åŃĺ": 1243,
      "ç¾İ": 1244,
      "ç®¡": 1245,
      "åŃŁ": 1246,
      "ä¸Ļ": 1247,
      "éĴ±": 1248,
      "æİ¨": 1249,
      "åįĪ": 1250,
      "çģ«": 1251,
      "ä¾įéĥİ": 1252,
      "å¯¿": 1253,
      "ä¸ĺ": 1254,
      "³»": 1255,
      "å¼ĥ": 1256,
      "éĽħ": 1257,
      "èħ": 1258,
      "ä½Ĩ": 1259,
      "ç¾¤": 1260,
      "æķ£éªĳ": 1261,
      "çĵ": 1262,
      "åĤħ": 1263,
      "éº": 1264,
      "æīĭ": 1265,
      "åºĨ": 1266,
      "æİĮ": 1267,
      "æŃ£æľĪ": 1268,
      "å¯ħ": 1269,
      "åĵĢ": 1270,
      "è¿İ": 1271,
      "èµł": 1272,
      "èĦ": 1273,
      "æ¼": 1274,
      "ä¾Ŀ": 1275,
      "î¨ł": 1276,
      "åĨĢ": 1277,
      "æ®·": 1278,
      "çĻ¸": 1279,
      "åİ¥": 1280,
      "ä»Ĩå°Ħ": 1281,
      "èµı": 1282,
      "çĤ": 1283,
      "åĳ¼": 1284,
      "åı¸å¾Ĵ": 1285,
      "åĿļ": 1286,
      "åĬ³": 1287,
      "ä¹Į": 1288,
      "å¾®": 1289,
      "ç©Ĩ": 1290,
      "æ¸©": 1291,
      "èĻŀ": 1292,
      "äº¥": 1293,
      "ç»į": 1294,
      "åłĤ": 1295,
      "èĸ¨": 1296,
      "ç¦»": 1297,
      "éĥŃ": 1298,
      "æĢ»": 1299,
      "äºĶå¹´": 1300,
      "ç±»": 1301,
      "éķ¿åı²": 1302,
      "ç§¯": 1303,
      "è§Ĩ": 1304,
      "ç¾½": 1305,
      "éķ¿å®ī": 1306,
      "åģĩ": 1307,
      "ä¿Ĺ": 1308,
      "æĹı": 1309,
      "å°º": 1310,
      "å¹½": 1311,
      "ç´¯": 1312,
      "è¡¡": 1313,
      "ç¥¸": 1314,
      "äºĮåįĥ": 1315,
      "å½ķ": 1316,
      "è°ı": 1317,
      "éĩİ": 1318,
      "ä¸ºä¹ĭ": 1319,
      "éĻĦ": 1320,
      "å¾ĭ": 1321,
      "æ¿": 1322,
      "æĸŃ": 1323,
      "å·³": 1324,
      "æĪİ": 1325,
      "éĢº": 1326,
      "ç½¢": 1327,
      "æĬļ": 1328,
      "çµ": 1329,
      "åįĩ": 1330,
      "åĬ¿": 1331,
      "ä¸¥": 1332,
      "éļĭ": 1333,
      "äººä¹ĭ": 1334,
      "é¡»": 1335,
      "äº¬å¸Ī": 1336,
      "èķ": 1337,
      "å¾¡åı²": 1338,
      "èĻİ": 1339,
      "åĨľ": 1340,
      "ä¸ŀçĽ¸": 1341,
      "éħī": 1342,
      "æĬ¥": 1343,
      "åħ·": 1344,
      "èĳ¬": 1345,
      "å´©": 1346,
      "èµĦ": 1347,
      "å«": 1348,
      "èª¬": 1349,
      "é¡¾": 1350,
      "åħħ": 1351,
      "æĤ¦": 1352,
      "èĳĹ": 1353,
      "åŃ¤": 1354,
      "âĹ": 1355,
      "å®ł": 1356,
      "èĤĥ": 1357,
      "éĽĦ": 1358,
      "ä½Ļäºº": 1359,
      "å½¼": 1360,
      "åĸľ": 1361,
      "æ²Ļ": 1362,
      "å¡ŀ": 1363,
      "åĨ³": 1364,
      "ç»§": 1365,
      "ç²¾": 1366,
      "è¾Ł": 1367,
      "ä»į": 1368,
      "è¦ģ": 1369,
      "å½Ń": 1370,
      "çĻ¾å§ĵ": 1371,
      "äºĮçĻ¾": 1372,
      "èĻļ": 1373,
      "è®©": 1374,
      "æĺ¥ç§ĭ": 1375,
      "è¿Ĳ": 1376,
      "åĽĽåįģ": 1377,
      "çľŁ": 1378,
      "å¸Īåı¤": 1379,
      "ä¼ª": 1380,
      "åĲī": 1381,
      "ç¥Ģ": 1382,
      "åħ»": 1383,
      "è¾¹": 1384,
      "äºĶåįģ": 1385,
      "æľŁ": 1386,
      "èĩ³äºİ": 1387,
      "åıĽ": 1388,
      "çº¦": 1389,
      "çī§": 1390,
      "åħŃå¹´": 1391,
      "éĿ¢": 1392,
      "ç¯": 1393,
      "ä¸īæľĪ": 1394,
      "é¬": 1395,
      "ä»ªåĲĮ": 1396,
      "éĥĬ": 1397,
      "æľ¯": 1398,
      "ä¸įæķ¢": 1399,
      "å®°": 1400,
      "éĻĨ": 1401,
      "éĺĻ": 1402,
      "æĢ¥": 1403,
      "èµ¤": 1404,
      "åį±": 1405,
      "çł´ä¹ĭ": 1406,
      "âĹĭ": 1407,
      "ç»ĵ": 1408,
      "è´¨": 1409,
      "æľĿå»·": 1410,
      "æĿĢä¹ĭ": 1411,
      "çļĩåĲİ": 1412,
      "ç»Ŀ": 1413,
      "è§Ĵ": 1414,
      "èĬĤåº¦ä½¿": 1415,
      "ç¾£": 1416,
      "ç¨½": 1417,
      "å½¢": 1418,
      "åŃĲæĽ°": 1419,
      "åı¸ç©º": 1420,
      "åĵģ": 1421,
      "çŃĸ": 1422,
      "åį¢": 1423,
      "çĽĹ": 1424,
      "å¼±": 1425,
      "åŀĤ": 1426,
      "éļĤ": 1427,
      "äºī": 1428,
      "èĢħä¹Ł": 1429,
      "å½¦": 1430,
      "âĸ": 1431,
      "æ²Ī": 1432,
      "åĽĽæľĪ": 1433,
      "åĪ°": 1434,
      "è´ŀ": 1435,
      "å§Ķ": 1436,
      "æŃ¥": 1437,
      "éĢł": 1438,
      "å®¿": 1439,
      "åĮĪ": 1440,
      "ä¼¤": 1441,
      "æħķ": 1442,
      "åħĨ": 1443,
      "å¼ĺ": 1444,
      "å¯Ł": 1445,
      "è®¾": 1446,
      "æŀľ": 1447,
      "å°¹": 1448,
      "ç®Ģ": 1449,
      "æł¡å°ī": 1450,
      "å¸Īåı¤æĽ°": 1451,
      "ä¹ĭæīĢ": 1452,
      "å¤ªå°ī": 1453,
      "çī¹": 1454,
      "è¯»æĽ°": 1455,
      "åĬ¡": 1456,
      "åĭĴ": 1457,
      "ç´¢éļĲ": 1458,
      "æĻº": 1459,
      "äºĮæľĪ": 1460,
      "åĮ¹": 1461,
      "æĪĮ": 1462,
      "è¯Ĩ": 1463,
      "æĬ¤": 1464,
      "æĢ¨": 1465,
      "é¢ĩ": 1466,
      "åį¯": 1467,
      "èĶ¡": 1468,
      "äºĶæľĪ": 1469,
      "æ²¡": 1470,
      "ç¦ı": 1471,
      "çĭ±": 1472,
      "æĹłæīĢ": 1473,
      "æĸ½": 1474,
      "æĴ°": 1475,
      "ç«Ł": 1476,
      "å´Ķ": 1477,
      "éĴŁ": 1478,
      "åĭĩ": 1479,
      "åıĪç¿»": 1480,
      "æķ£éªĳå¸¸ä¾į": 1481,
      "ä¹ĭä»¥": 1482,
      "æĮĩ": 1483,
      "éĢī": 1484,
      "ç½Ĺ": 1485,
      "æ³½": 1486,
      "åį³ä½į": 1487,
      "åĮĪå¥´": 1488,
      "æĸĩå¸Ŀ": 1489,
      "æĭĶ": 1490,
      "ä¸ĥæľĪ": 1491,
      "åħĸ": 1492,
      "ä¹ĭåĲİ": 1493,
      "åįģæľĪ": 1494,
      "çıŃ": 1495,
      "âĸ¡": 1496,
      "éĽ¨": 1497,
      "ï¼ŁãĢį": 1498,
      "æĹ¦": 1499,
      "ç¤¾": 1500,
      "é¥®": 1501,
      "åĭ¿": 1502,
      "èģļ": 1503,
      "åĥ§": 1504,
      "åħīç¦Ħ": 1505,
      "è´¡": 1506,
      "ç°": 1507,
      "èİ½": 1508,
      "å¦ĤæŃ¤": 1509,
      "è°¥": 1510,
      "åħŃæľĪ": 1511,
      "æĤ£": 1512,
      "å¯Į": 1513,
      "åĬĿ": 1514,
      "ä½ĵ": 1515,
      "èł": 1516,
      "æķĮ": 1517,
      "åįł": 1518,
      "é¼ĵ": 1519,
      "å¸Ĥ": 1520,
      "å¼Ģåºľ": 1521,
      "å¼º": 1522,
      "çĶ·": 1523,
      "çĽ®": 1524,
      "åĨ²": 1525,
      "åµĹ": 1526,
      "æķ¦": 1527,
      "çªģ": 1528,
      "ä¹ĭæĽ°": 1529,
      "è´º": 1530,
      "è´Ł": 1531,
      "èµ´": 1532,
      "éľĩ": 1533,
      "æĭĴ": 1534,
      "èįī": 1535,
      "å½Ĭ": 1536,
      "æľº": 1537,
      "è´¾": 1538,
      "ä¸°": 1539,
      "èĮĤ": 1540,
      "ä¸Ńéĥİ": 1541,
      "åķĨ": 1542,
      "ä½Ĳ": 1543,
      "éĺ¿": 1544,
      "åĩ¶": 1545,
      "ä¸īåı¸": 1546,
      "ç¾Ĭ": 1547,
      "ç©·": 1548,
      "å¦ĩ": 1549,
      "ç§»": 1550,
      "åĩł": 1551,
      "è¶ħ": 1552,
      "è´£": 1553,
      "åĽŀ": 1554,
      "éĤº": 1555,
      "å¼Ĺ": 1556,
      "ç§Ģ": 1557,
      "èĻĳ": 1558,
      "å·¥": 1559,
      "åºĦ": 1560,
      "æģĴ": 1561,
      "èĽ®": 1562,
      "å¦ĥ": 1563,
      "äºĶçĻ¾": 1564,
      "çħ": 1565,
      "å½¹": 1566,
      "èµĭ": 1567,
      "æĦŁ": 1568,
      "éŀ": 1569,
      "åħ«æľĪ": 1570,
      "çµ¶": 1571,
      "æ³ī": 1572,
      "éī": 1573,
      "ä¸ĢçĻ¾": 1574,
      "ä¸ĵ": 1575,
      "ä»İä¹ĭ": 1576,
      "åĦĴ": 1577,
      "äºŃ": 1578,
      "åĦ¿": 1579,
      "å®ª": 1580,
      "èĸĦ": 1581,
      "æļ´": 1582,
      "åĨĽå°ĨåĨĽ": 1583,
      "åĲĲ": 1584,
      "î¨Ł": 1585,
      "ä¸įçŁ¥": 1586,
      "ä¸ĭåĲĮ": 1587,
      "èĪĨ": 1588,
      "ä¸Ģäºº": 1589,
      "çºµ": 1590,
      "æ´Ľéĺ³": 1591,
      "ä¹ĿæľĪ": 1592,
      "å¥¸": 1593,
      "ä¸īçĻ¾": 1594,
      "æ¾": 1595,
      "ç¥ł": 1596,
      "å¯¹æĽ°": 1597,
      "èĭ¦": 1598,
      "éļł": 1599,
      "æı´": 1600,
      "è¤": 1601,
      "ä¹ĭåŃĲ": 1602,
      "å¤įæī¶": 1603,
      "ä»¥åħ¶": 1604,
      "èĢĥå¼Ĥ": 1605,
      "è¯ıæĽ°": 1606,
      "åĩī": 1607,
      "åħŃåįģ": 1608,
      "ç¾Į": 1609,
      "å¤įæī¶åıĪç¿»": 1610,
      "è¯¸å°Ĩ": 1611,
      "åħĦå¼Ł": 1612,
      "ä»ªåĲĮä¸īåı¸": 1613,
      "éĩĬ": 1614,
      "å¢ĥ": 1615,
      "è¿Ŀ": 1616,
      "ç¤º": 1617,
      "æ¤": 1618,
      "éĻ·": 1619,
      "æĮ¯": 1620,
      "æĵį": 1621,
      "æŃĮ": 1622,
      "èļ": 1623,
      "æ²³åįĹ": 1624,
      "èŀ": 1625,
      "éŁ¦": 1626,
      "æĪį": 1627,
      "èĢĮå·²": 1628,
      "åı¹": 1629,
      "ä¸ĥå¹´": 1630,
      "åºŃ": 1631,
      "é©°": 1632,
      "èĢĥå¼ĤæĽ°": 1633,
      "åįĳ": 1634,
      "å·®": 1635,
      "æ¯ķ": 1636,
      "æ¨ª": 1637,
      "åĨ¯": 1638,
      "éģ¥": 1639,
      "æĺ¯ä»¥": 1640,
      "å·´": 1641,
      "è¢ģ": 1642,
      "æĭĽ": 1643,
      "é¢Ħ": 1644,
      "åįģä¸ĢæľĪ": 1645,
      "èĨ": 1646,
      "è¾Ħ": 1647,
      "è´¢": 1648,
      "æĮģèĬĤ": 1649,
      "éģ¿": 1650,
      "æĪ¿": 1651,
      "ç¨·": 1652,
      "çªĥ": 1653,
      "åįģäºĮæľĪ": 1654,
      "åĨµ": 1655,
      "éĺ³çİĭ": 1656,
      "ä¸ĸç¥ĸ": 1657,
      "ç¬¦": 1658,
      "åĲĽåŃĲ": 1659,
      "è¾½": 1660,
      "æİ¥": 1661,
      "èķĥ": 1662,
      "åĲ¯": 1663,
      "è¿°": 1664,
      "è²": 1665,
      "å¯¸": 1666,
      "çĶ±æĺ¯": 1667,
      "åħ¬ä¸»": 1668,
      "ç³»": 1669,
      "çĬ¶": 1670,
      "çĥĪ": 1671,
      "éĹ»ä¹ĭ": 1672,
      "è¡į": 1673,
      "æ»¡": 1674,
      "èĴĻ": 1675,
      "èĭı": 1676,
      "è¹": 1677,
      "åįķäºİ": 1678,
      "èĭ±": 1679,
      "è¯¸åĨĽäºĭ": 1680,
      "æ®Ĭ": 1681,
      "å®ĩ": 1682,
      "ä¹¦æĽ°": 1683,
      "çķı": 1684,
      "å±Ī": 1685,
      "éĹĹ": 1686,
      "å¼ı": 1687,
      "åįĬ": 1688,
      "å¥ĳ": 1689,
      "ç§į": 1690,
      "ï¼Ī": 1691,
      "ä¹ĭä¸į": 1692,
      "èįĲ": 1693,
      "ç±į": 1694,
      "å¼¥": 1695,
      "ä¸īåįĥ": 1696,
      "æ¸ł": 1697,
      "å²³": 1698,
      "ä¹ŀ": 1699,
      "æĽ¾": 1700,
      "åĽ½ä¹ĭ": 1701,
      "äº®ç¿»": 1702,
      "åıĭ": 1703,
      "ï¼ī": 1704,
      "åħģ": 1705,
      "çĦ¶åĲİ": 1706,
      "çİĭä¹ĭ": 1707,
      "èĵ": 1708,
      "æµĳ": 1709,
      "å¿Į": 1710,
      "æ±ł": 1711,
      "éī´": 1712,
      "è¦Ĩ": 1713,
      "çĶĺ": 1714,
      "æľīåı¸": 1715,
      "åĬ©": 1716,
      "æĶ¯": 1717,
      "ä¾µ": 1718,
      "é»ĦéĹ¨": 1719,
      "è¡¥": 1720,
      "æłĳ": 1721,
      "ä¹ĭäºİ": 1722,
      "åħ«å¹´": 1723,
      "åħīç¦Ħå¤§å¤«": 1724,
      "éĩĩ": 1725,
      "æĿĤ": 1726,
      "ä¿Ń": 1727,
      "éĻĩ": 1728,
      "éĢ¼": 1729,
      "å®¾": 1730,
      "éĻ©": 1731,
      "ä¹ĭäºĭ": 1732,
      "å¯¡": 1733,
      "æŁ±": 1734,
      "èĸĽ": 1735,
      "åĨį": 1736,
      "èĹı": 1737,
      "è°¦": 1738,
      "éģµ": 1739,
      "å°¤": 1740,
      "ä»ĵ": 1741,
      "éĥ½å°ī": 1742,
      "ç¯ĩ": 1743,
      "æķķ": 1744,
      "èĲ½": 1745,
      "åī¯": 1746,
      "çķĮ": 1747,
      "æĻı": 1748,
      "å¯Ħ": 1749,
      "åĭ¤": 1750,
      "æ¸Ĭ": 1751,
      "çģ¾": 1752,
      "çĨĻ": 1753,
      "èĴ²": 1754,
      "åŁŁ": 1755,
      "åĭĭ": 1756,
      "å¤«äºº": 1757,
      "è¡°": 1758,
      "æ´ª": 1759,
      "ä¹ĭåľ°": 1760,
      "ä¸ºå¤§": 1761,
      "ä¿Ĭ": 1762,
      "åħ¶åĲİ": 1763,
      "ç¨į": 1764,
      "åĳĺ": 1765,
      "å¯Ĵ": 1766,
      "æ¯ģ": 1767,
      "ä¸Ī": 1768,
      "ï¼ģãĢį": 1769,
      "ç¿¼": 1770,
      "æĶ¾": 1771,
      "é±": 1772,
      "åı¯ä»¥": 1773,
      "ç¹": 1774,
      "å¦Ĥæķħ": 1775,
      "æĩĲ": 1776,
      "éªł": 1777,
      "æĺ¯æĹ¶": 1778,
      "è°Ĵ": 1779,
      "éĮ": 1780,
      "ç¦ħ": 1781,
      "ä¹ł": 1782,
      "åħ¹": 1783,
      "å¤º": 1784,
      "ä»¥æĿ¥": 1785,
      "è°¨": 1786,
      "ä¸įè¶³": 1787,
      "å¾Ĳå¹¿": 1788,
      "æª": 1789,
      "åħ®": 1790,
      "éĿĻ": 1791,
      "æĦļ": 1792,
      "é±¼": 1793,
      "ç´¢éļł": 1794,
      "éĮ²": 1795,
      "æĸĹ": 1796,
      "é¡·": 1797,
      "æ²³ä¸ľ": 1798,
      "åįļå£«": 1799,
      "å³": 1800,
      "ä¼łæĽ°": 1801,
      "å¢ŀ": 1802,
      "ä¸ĥåįģ": 1803,
      "çıį": 1804,
      "è½¨": 1805,
      "éªĳå°ĨåĨĽ": 1806,
      "è£´": 1807,
      "æįŁ": 1808,
      "ç°¿": 1809,
      "é£ŀ": 1810,
      "ä»ķ": 1811,
      "ä¸½": 1812,
      "ä¹Ĺ": 1813,
      "ç²®": 1814,
      "é¥¥": 1815,
      "ç¦¹": 1816,
      "æĹ©": 1817,
      "å¸Ľ": 1818,
      "åĵŃ": 1819,
      "é¡¿": 1820,
      "æĪļ": 1821,
      "æĥĳ": 1822,
      "æ³£": 1823,
      "è¯¯": 1824,
      "æ¯Ľ": 1825,
      "æĥĬ": 1826,
      "ç¥¥": 1827,
      "éĤĵ": 1828,
      "æĬĺ": 1829,
      "è¾©": 1830,
      "è¯¦": 1831,
      "ä¹ĭè¨Ģ": 1832,
      "éħį": 1833,
      "è£ķ": 1834,
      "èĳĽ": 1835,
      "åĩı": 1836,
      "çŃĳ": 1837,
      "æķ°åįģ": 1838,
      "æ±¤": 1839,
      "ç¬ĳ": 1840,
      "èŀį": 1841,
      "ç½²": 1842,
      "é¹¿": 1843,
      "å¥ĩ": 1844,
      "å¹¼": 1845,
      "äºĶåįĥ": 1846,
      "è®Ń": 1847,
      "æ·®åįĹ": 1848,
      "è°¥æĽ°": 1849,
      "èİ«ä¸į": 1850,
      "åİ¿å±ŀ": 1851,
      "å¸¦": 1852,
      "ä½ķä»¥": 1853,
      "å¾Ĳå¹¿æĽ°": 1854,
      "æĲ": 1855,
      "æľīæīĢ": 1856,
      "åºı": 1857,
      "åºĲ": 1858,
      "æĪĴ": 1859,
      "è´«": 1860,
      "å¿ĺ": 1861,
      "æħİ": 1862,
      "ãĢĢãĢĢ": 1863,
      "æİł": 1864,
      "çĽŁ": 1865,
      "è±ª": 1866,
      "åħ«åįģ": 1867,
      "é¡¹": 1868,
      "éª¨": 1869,
      "ç«¯": 1870,
      "åħ°": 1871,
      "ç§ĺ": 1872,
      "åİī": 1873,
      "èµŀ": 1874,
      "çĿĢ": 1875,
      "èĥĮ": 1876,
      "é²ľ": 1877,
      "éĢĤ": 1878,
      "éĥ¨å°ļä¹¦": 1879,
      "éĿ©": 1880,
      "çĻ¾å®ĺ": 1881,
      "å¯Ŀ": 1882,
      "èĪŀ": 1883,
      "åı¥": 1884,
      "èĤī": 1885,
      "éĢĥ": 1886,
      "æ±Ĺ": 1887,
      "éĢĲ": 1888,
      "ãĢı": 1889,
      "ä¹ĭä¸º": 1890,
      "ãĢİ": 1891,
      "éľ¸": 1892,
      "åºĵ": 1893,
      "æ½ľ": 1894,
      "å°ļä¹¦ä»¤": 1895,
      "çļ®": 1896,
      "è§Ī": 1897,
      "èĳ£": 1898,
      "å¸Į": 1899,
      "ä¼¦": 1900,
      "ä¼Ĭ": 1901,
      "ä¹ĭä¹Ł": 1902,
      "è«": 1903,
      "åĩºä¸º": 1904,
      "æ´¥": 1905,
      "äºķ": 1906,
      "åĭĥ": 1907,
      "åŁº": 1908,
      "åĪĢ": 1909,
      "å®ħ": 1910,
      "å±¡": 1911,
      "å£®": 1912,
      "åħ¶æīĢ": 1913,
      "å¤ķ": 1914,
      "ç¢": 1915,
      "ä¹Ŀå¹´": 1916,
      "è¿¹": 1917,
      "åĢĻ": 1918,
      "ä»ĸ": 1919,
      "éĴ¦": 1920,
      "å°§": 1921,
      "çĶ«": 1922,
      "èĪ¹": 1923,
      "å½ŃåŁİ": 1924,
      "åĨħåı²": 1925,
      "ä¹ĭéĹ´": 1926,
      "ä½¿èĢħ": 1927,
      "ä¸įä»İ": 1928,
      "ä¸ľåįĹ": 1929,
      "å¾ª": 1930,
      "æĺ¯ä¹Ł": 1931,
      "æ±īä¹¦": 1932,
      "èĹ©": 1933,
      "åħ¶åŃĲ": 1934,
      "æĬķ": 1935,
      "èı": 1936,
      "ä»°": 1937,
      "æķ°åįĥ": 1938,
      "çŀ": 1939,
      "ä»¥ä¸ĭ": 1940,
      "éĩı": 1941,
      "åħ¬åį¿": 1942,
      "æīĢè°ĵ": 1943,
      "è¶£": 1944,
      "åįģäºĶ": 1945,
      "ç«¹": 1946,
      "æīĺ": 1947,
      "è´¹": 1948,
      "éĹ²": 1949,
      "åĢ¾": 1950,
      "æģ¨": 1951,
      "ç¥ŀæŃ¦": 1952,
      "çīĻ": 1953,
      "èįĨå·ŀ": 1954,
      "å§ļ": 1955,
      "ä»¥æŃ¤": 1956,
      "é¸¿": 1957,
      "ç´«": 1958,
      "çĭĦ": 1959,
      "èĪįäºº": 1960,
      "æĪ¸": 1961,
      "è¥¿åĮĹ": 1962,
      "æĢ»ç®¡": 1963,
      "éľ²": 1964,
      "æ²Ľ": 1965,
      "éĨ": 1966,
      "ä¼ĺ": 1967,
      "é¢į": 1968,
      "ç¿»åıĪ": 1969,
      "é©±": 1970,
      "åĲıç¿»": 1971,
      "å¯¼": 1972,
      "æ¡¥": 1973,
      "åį³äº®ç¿»": 1974,
      "å¤©åľ°": 1975,
      "çĮĽ": 1976,
      "éĢĬ": 1977,
      "å¼¼": 1978,
      "ä»İäºĭ": 1979,
      "å°Ĩåħµ": 1980,
      "å¼Ģçļĩ": 1981,
      "æĺ¥æŃ£æľĪ": 1982,
      "èĪĴ": 1983,
      "äºĭè§ģ": 1984,
      "åħ¬åŃĲ": 1985,
      "é³": 1986,
      "åįģä½Ļ": 1987,
      "ä¸ľåĮĹ": 1988,
      "è°ĥ": 1989,
      "å°Ĩåį³äº®ç¿»": 1990,
      "æħķå®¹": 1991,
      "ç«Ĵ": 1992,
      "åı²è®°": 1993,
      "æķĪ": 1994,
      "æĶ¸": 1995,
      "åĪĩ": 1996,
      "è°ģ": 1997,
      "åĮ¡": 1998,
      "èĪľ": 1999,
      "æ¹ĸ": 2000,
      "è¸": 2001,
      "åĽŃ": 2002,
      "å¤ªå¸¸": 2003,
      "ä¸İä¹ĭ": 2004,
      "æ¸¡": 2005,
      "å¯º": 2006,
      "æ§": 2007,
      "èŃ": 2008,
      "éĻ¶": 2009,
      "æ¸Ĳ": 2010,
      "äº§": 2011,
      "æķ°çĻ¾": 2012,
      "è§Ħ": 2013,
      "æĹ¨": 2014,
      "ç½ļ": 2015,
      "éĢ¾": 2016,
      "ä¼ªç¿»": 2017,
      "çªģåİ¥": 2018,
      "æ¡ĳ": 2019,
      "è½¦é©¾": 2020,
      "æ¥¼": 2021,
      "é»İ": 2022,
      "æĸ©ä¹ĭ": 2023,
      "äºĮäºº": 2024,
      "æĪ®": 2025,
      "è¥¿åįĹ": 2026,
      "æŃ»èĢħ": 2027,
      "èĩ§": 2028,
      "è¯Ī": 2029,
      "ä¸įä¸º": 2030,
      "å¤§èµ¦": 2031,
      "ç»´": 2032,
      "è´±": 2033,
      "ä¸ĢæĽ°": 2034,
      "é¥°": 2035,
      "åĩ¤": 2036,
      "æµ®": 2037,
      "å®´": 2038,
      "äºİä¼ªç¿»": 2039,
      "èĪŁ": 2040,
      "ç¦½": 2041,
      "èłķ": 2042,
      "éĥ¢": 2043,
      "è³": 2044,
      "æĺİå¸Ŀ": 2045,
      "åįĵ": 2046,
      "ä¸Ģåį·": 2047,
      "å¤ıåĽĽæľĪ": 2048,
      "æ¹ĺ": 2049,
      "å¿µ": 2050,
      "ï¼ŁâĢĿ": 2051,
      "åĩ»ä¹ĭ": 2052,
      "æĿ¾": 2053,
      "ä¸ĩäºº": 2054,
      "æŃ´": 2055,
      "æ¬¢": 2056,
      "ç¬ĥ": 2057,
      "å§ĳ": 2058,
      "éĢ¸": 2059,
      "å°¸": 2060,
      "ç»¶": 2061,
      "éĺ³åİ¿": 2062,
      "èº¬": 2063,
      "é¬¼": 2064,
      "æĹħ": 2065,
      "æĹ¶å¹´": 2066,
      "æĿ¡": 2067,
      "èģª": 2068,
      "è¯ŀ": 2069,
      "å¿į": 2070,
      "æĵĴ": 2071,
      "æĹ±": 2072,
      "ä½¿äºº": 2073,
      "æĻ®": 2074,
      "ç§©": 2075,
      "å¾½": 2076,
      "ç¤¾ç¨·": 2077,
      "ç»©": 2078,
      "èĭĳ": 2079,
      "å¿½": 2080,
      "è®³": 2081,
      "åĨ¬åįģæľĪ": 2082,
      "æķħåŁİ": 2083,
      "æĹĹ": 2084,
      "å®½": 2085,
      "å¯³": 2086,
      "é¼İ": 2087,
      "åĥļ": 2088,
      "æ¯ħ": 2089,
      "çĲħ": 2090,
      "ä¸ºäºİä¼ªç¿»": 2091,
      "ä¼¼": 2092,
      "çº§": 2093,
      "åį°": 2094,
      "åīįåĲİ": 2095,
      "éĻµçİĭ": 2096,
      "ä¸įå¦Ĥ": 2097,
      "é¸Ł": 2098,
      "åĽ°": 2099,
      "åº¸": 2100,
      "å¤§èĩ£": 2101,
      "è®¨ä¹ĭ": 2102,
      "å³»": 2103,
      "æĿĸ": 2104,
      "çª¦": 2105,
      "å¼Ģåºľä»ªåĲĮä¸īåı¸": 2106,
      "éĽĨè§£å¾Ĳå¹¿æĽ°": 2107,
      "æĽľ": 2108,
      "åħ½": 2109,
      "å¤ªåĤħ": 2110,
      "åĪ»": 2111,
      "äºĪ": 2112,
      "çĽĲ": 2113,
      "åĽ½å®¶": 2114,
      "ãĢĤãĢĬ": 2115,
      "å¤Ģ": 2116,
      "éģ¥ç¿»": 2117,
      "æģ¤": 2118,
      "æĭ¬": 2119,
      "å¥ĭ": 2120,
      "æľĹ": 2121,
      "åįģä¸ī": 2122,
      "ä¸Ńéĥİå°Ĩ": 2123,
      "æĺİå¹´": 2124,
      "ç§ĭä¸ĥæľĪ": 2125,
      "æĳĦ": 2126,
      "çİº": 2127,
      "çŁŃ": 2128,
      "éĿ¡": 2129,
      "ä¹ĭå£«": 2130,
      "æħ°": 2131,
      "åŃĲä¹Ł": 2132,
      "è´ª": 2133,
      "èįĴ": 2134,
      "ä¸įå¤į": 2135,
      "å¾´": 2136,
      "å±ĭ": 2137,
      "ä¹ĭä¹ī": 2138,
      "æ¦": 2139,
      "åĳī": 2140,
      "éł": 2141,
      "ä¸Ńå±±": 2142,
      "é»ĳ": 2143,
      "æķĽ": 2144,
      "éªģ": 2145,
      "ä¾§": 2146,
      "ä¾Ľ": 2147,
      "åłª": 2148,
      "åĽļ": 2149,
      "ç¥ļ": 2150,
      "è©": 2151,
      "ç»Ń": 2152,
      "çī¢": 2153,
      "æ¶ķ": 2154,
      "ä¸įè®¸": 2155,
      "éĢŁ": 2156,
      "ä¹ĭéģĵ": 2157,
      "è¯ģ": 2158,
      "æºĲ": 2159,
      "éĥİä¸Ń": 2160,
      "éªĦ": 2161,
      "éĶĭ": 2162,
      "æ¶ī": 2163,
      "åĬŃ": 2164,
      "å¥ļ": 2165,
      "ä¹ĭäºº": 2166,
      "èĤĨ": 2167,
      "æħĪ": 2168,
      "çĲħéĤª": 2169,
      "åĪļ": 2170,
      "æİ¾": 2171,
      "è¡Įåı°": 2172,
      "éĥ¡å¤ªå®Ī": 2173,
      "åįĹéĺ³": 2174,
      "åįłæĽ°": 2175,
      "å¤§ä¸ļ": 2176,
      "å²Ń": 2177,
      "å·¡": 2178,
      "æł¹": 2179,
      "åĿĩ": 2180,
      "èĭį": 2181,
      "åıĪæĽ°": 2182,
      "éªĳå¤§å°ĨåĨĽ": 2183,
      "å®¡": 2184,
      "ä»¥ä¸Ĭ": 2185,
      "åĨħå¤ĸ": 2186,
      "æĺĨ": 2187,
      "æĸĽ": 2188,
      "é½Ĳçİĭ": 2189,
      "ä¸įä»¥": 2190,
      "çŁ¥åħ¶": 2191,
      "éģģ": 2192,
      "éĵģ": 2193,
      "è¾ĵ": 2194,
      "ä¸»ç°¿": 2195,
      "æĻĭéĺ³": 2196,
      "å¼ĵ": 2197,
      "è§ī": 2198,
      "æľĿçĽ´": 2199,
      "åįľ": 2200,
      "èĢĮè¿ĺ": 2201,
      "äº¬åħĨ": 2202,
      "å¦¾": 2203,
      "æµ©": 2204,
      "æľĢ": 2205,
      "åĽĽæĸ¹": 2206,
      "èį¯": 2207,
      "éĺ¶": 2208,
      "å®ĹåºĻ": 2209,
      "åŃĶåŃĲ": 2210,
      "åĴ¨": 2211,
      "æķħæĽ°": 2212,
      "ä»ĬæĹ¥": 2213,
      "è´§": 2214,
      "è®¸ä¹ĭ": 2215,
      "è¯»æĽ°çİĩ": 2216,
      "è¿Ł": 2217,
      "å¥ĳä¸¹": 2218,
      "æľĿçĽ´éģ¥ç¿»": 2219,
      "éĥ¡åĽ½": 2220,
      "æĤ¬": 2221,
      "å¸ħè¯»æĽ°çİĩ": 2222,
      "çĽĪ": 2223,
      "å©´": 2224,
      "å§¬": 2225,
      "å¹³çİĭ": 2226,
      "éĹŃ": 2227,
      "åħ¬åŃĻ": 2228,
      "æ±ŁéĻµ": 2229,
      "æīĢåľ¨": 2230,
      "ä¹ĭå¿ĥ": 2231,
      "åĸ»": 2232,
      "æķı": 2233,
      "æ®µ": 2234,
      "ç£": 2235,
      "åı¶": 2236,
      "çİĩä¼Ĺ": 2237,
      "å¼ķåħµ": 2238,
      "å»ī": 2239,
      "èįĢ": 2240,
      "æĤ²": 2241,
      "æ·³": 2242,
      "å±¥": 2243,
      "ä¸ºäºº": 2244,
      "çŁ¢": 2245,
      "ä»ĭ": 2246,
      "åĴİ": 2247,
      "è·µ": 2248,
      "ç»Ļäºĭ": 2249,
      "ç¾£èĩ£": 2250,
      "å®¦": 2251,
      "åıĪæľī": 2252,
      "çĶ»": 2253,
      "å·ŀä¹ĭ": 2254,
      "æ¶Ĥ": 2255,
      "æ¾Ħ": 2256,
      "éģŃ": 2257,
      "ä¸įåıĬ": 2258,
      "åħŃçĻ¾": 2259,
      "çķ§": 2260,
      "æĺ¼": 2261,
      "æĺı": 2262,
      "çĦļ": 2263,
      "çķľ": 2264,
      "è¯±": 2265,
      "èĢħçļĨ": 2266,
      "å»·å°ī": 2267,
      "æ£Ģ": 2268,
      "æŁĶ": 2269,
      "é¦Ĩ": 2270,
      "é¸£": 2271,
      "èµĲçĪµ": 2272,
      "è¡Ģ": 2273,
      "æĸ¤": 2274,
      "ä»Ĭä»İ": 2275,
      "è¾±": 2276,
      "åľ°å¿Ĺ": 2277,
      "æľīå¤§": 2278,
      "çħ§": 2279,
      "æŁ±åĽ½": 2280,
      "åĽĽçĻ¾": 2281,
      "ä¹ĭç¤¼": 2282,
      "èĳ¢": 2283,
      "ä¸ľå®«": 2284,
      "éĥ¡åħ¬": 2285,
      "å£«åįĴ": 2286,
      "æĹ¥æľī": 2287,
      "åħĪæĺ¯": 2288,
      "è¨Ģä¹ĭ": 2289,
      "å¦Ħ": 2290,
      "æįķ": 2291,
      "ä¹ĭåĬŁ": 2292,
      "èį¡": 2293,
      "ä»ĺ": 2294,
      "å£ģ": 2295,
      "èĤ¯": 2296,
      "è²Į": 2297,
      "èĢĮåĲİ": 2298,
      "ä¸Ĭä¹¦": 2299,
      "ä¸ĬæĽ°": 2300,
      "èħ¾": 2301,
      "äºĮåįĥçŁ³": 2302,
      "åħ¥æľĿ": 2303,
      "ä½¿æĮģèĬĤ": 2304,
      "å°Ĩå£«": 2305,
      "çĪ½": 2306,
      "æĸĩæŃ¦": 2307,
      "å·¨": 2308,
      "äºİæŃ¤": 2309,
      "æŃ¦çİĭ": 2310,
      "åįĴäºİ": 2311,
      "çĥ§": 2312,
      "èĦ±": 2313,
      "è§§": 2314,
      "éªĥ": 2315,
      "æ·«": 2316,
      "éģĲ": 2317,
      "ä¸Ģåįĥ": 2318,
      "æ²®": 2319,
      "æ°Ĳ": 2320,
      "åĪĽ": 2321,
      "èħ¹": 2322,
      "å¸ĿæĽ°": 2323,
      "æĩ¿": 2324,
      "ä½Ľ": 2325,
      "åŃĲåŃĻ": 2326,
      "è¨Ģäºİ": 2327,
      "æ¬²ä»¥": 2328,
      "å¾Ĳå·ŀ": 2329,
      "å¸Ń": 2330,
      "è´²": 2331,
      "è®°æĽ°": 2332,
      "å±ł": 2333,
      "ä¿Ħ": 2334,
      "å¤ªåİŁ": 2335,
      "ä¹ĭæĹ¶": 2336,
      "å°¾": 2337,
      "è´¤æĽ°": 2338,
      "è®²": 2339,
      "åħ¶äºĭ": 2340,
      "ä¹ĭæĹ¥": 2341,
      "éĹ¾": 2342,
      "ãĢįãĢĤ": 2343,
      "åħ¶è¨Ģ": 2344,
      "èĢĮæĹł": 2345,
      "ä¿Ł": 2346,
      "æľªæľī": 2347,
      "æŃ©": 2348,
      "åįģå¹´": 2349,
      "ä¹ĭä¸Ń": 2350,
      "åĲ«": 2351,
      "æİ©": 2352,
      "éŃıä¸»": 2353,
      "å·¦ä»Ĩå°Ħ": 2354,
      "ç±³": 2355,
      "è´¬": 2356,
      "æĥ®": 2357,
      "æĶ¹ä¸º": 2358,
      "èĤ²": 2359,
      "å®ı": 2360,
      "çŁ¦": 2361,
      "è¿ĽçĪµ": 2362,
      "ä»ĩ": 2363,
      "æī°": 2364,
      "èģĺ": 2365,
      "çĶ¨ç¿»": 2366,
      "å°¼": 2367,
      "æģĥ": 2368,
      "çļĩå¤ªåŃĲ": 2369,
      "å¤§çł´ä¹ĭ": 2370,
      "å®īåĽ½": 2371,
      "å·ŀéĥ¡": 2372,
      "éĢ¢": 2373,
      "èĢ»": 2374,
      "ç²Ł": 2375,
      "è±«ç«ł": 2376,
      "æĹ¬": 2377,
      "åįģåħŃ": 2378,
      "æĹ¶äºº": 2379,
      "çĮİ": 2380,
      "ä¸įè§ģ": 2381,
      "è¡ŀå°ĨåĨĽ": 2382,
      "æľªå°Ŀ": 2383,
      "ð«": 2384,
      "æĻ¦": 2385,
      "éĽ·": 2386,
      "ç¨ĭ": 2387,
      "åŃ°": 2388,
      "æ±¾": 2389,
      "åįģåĽĽ": 2390,
      "éĺµ": 2391,
      "è°ķ": 2392,
      "æºĥ": 2393,
      "åµ©": 2394,
      "å¤ªçĻ½": 2395,
      "æ®ĭ": 2396,
      "ä¸įåĲĮ": 2397,
      "å½ª": 2398,
      "åĽ½åŃĲ": 2399,
      "é¢ĳ": 2400,
      "æĦĪ": 2401,
      "ç¸": 2402,
      "æİĸ": 2403,
      "æ¨Ĭ": 2404,
      "å·¦ä¼ł": 2405,
      "ä¸ľæµ·": 2406,
      "çŃĶ": 2407,
      "æĽ°åĲ¾": 2408,
      "éĶ¡": 2409,
      "ä¸īåħ¬": 2410,
      "ç¥Ĳ": 2411,
      "å¦»åŃĲ": 2412,
      "ç§¦çİĭ": 2413,
      "åįı": 2414,
      "æŁ³": 2415,
      "æĪ´": 2416,
      "èĩ³æĺ¯": 2417,
      "åī²": 2418,
      "çİĭèĢħ": 2419,
      "ä¸ŃåĽ½": 2420,
      "éļ¶": 2421,
      "æľīåĬŁ": 2422,
      "æ¸Ń": 2423,
      "åŃĲä¹ĭ": 2424,
      "æĹ¥æľĪ": 2425,
      "åĭ²": 2426,
      "å²Ĳ": 2427,
      "å¢ĵ": 2428,
      "ä»Ļ": 2429,
      "èªī": 2430,
      "æĹ¢èĢĮ": 2431,
      "é¾Ł": 2432,
      "éĹ°": 2433,
      "éĤ¦": 2434,
      "çº¯": 2435,
      "èĢķ": 2436,
      "æ±Łç¿»": 2437,
      "åħīæŃ¦": 2438,
      "åĨ¦": 2439,
      "éĥģ": 2440,
      "éģ£åħ¶": 2441,
      "åħĥå¸Ŀ": 2442,
      "ä¸īä¸ĩ": 2443,
      "æĪı": 2444,
      "å·ŀè¯¸åĨĽäºĭ": 2445,
      "å®ĩæĸĩ": 2446,
      "çļĩå¤ªåĲİ": 2447,
      "æĤĶ": 2448,
      "ç²²": 2449,
      "åİĮ": 2450,
      "åľ¨ä»Ĭ": 2451,
      "çĭ¼": 2452,
      "ç¿°": 2453,
      "å¯Ķ": 2454,
      "çĥ¦": 2455,
      "èĩ£éĹ»": 2456,
      "å¤§åı¸é©¬": 2457,
      "å¹³åİŁ": 2458,
      "æĵħ": 2459,
      "åŃĿæŃ¦": 2460,
      "éĺ»": 2461,
      "çº²": 2462,
      "äºĮä¸ĩ": 2463,
      "è¥¿å°ĨåĨĽ": 2464,
      "åŁİä¸Ń": 2465,
      "éĤµ": 2466,
      "ä¼ļç¨½": 2467,
      "éªĮ": 2468,
      "ä¹ĭä¸Ĭ": 2469,
      "ç»Ľ": 2470,
      "åĩĨ": 2471,
      "è°¯": 2472,
      "éªı": 2473,
      "æķħäºĭ": 2474,
      "éĶĻ": 2475,
      "ä»Ĺ": 2476,
      "å¼Ĭ": 2477,
      "æ±ĿåįĹ": 2478,
      "åħĪå¸Ŀ": 2479,
      "è·Ŀ": 2480,
      "å¤ªåĴĮ": 2481,
      "ç«Ń": 2482,
      "èįħ": 2483,
      "åĽĽæµ·": 2484,
      "åĢį": 2485,
      "èĭŁ": 2486,
      "å®Ľ": 2487,
      "ç§ĺä¹¦": 2488,
      "æł¼": 2489,
      "åĲ¦": 2490,
      "æ¯ĭ": 2491,
      "å»ºå®ī": 2492,
      "åĲĦæľī": 2493,
      "å¤ªå®Ĺ": 2494,
      "ä¸ĥçĻ¾": 2495,
      "æ¸ħæ²³": 2496,
      "å¦ĤåŃĹ": 2497,
      "ç«ŀ": 2498,
      "æĭ©": 2499,
      "æĻĸ": 2500,
      "åįĥéĩĮ": 2501,
      "éĤ£": 2502,
      "é»ľ": 2503,
      "ç¡": 2504,
      "çĺ": 2505,
      "çĪ¶åŃĲ": 2506,
      "åŁİåİ¿": 2507,
      "åı¯æ±Ĺ": 2508,
      "ç»Ĩ": 2509,
      "çŁ¥ä¹ĭ": 2510,
      "åĳ¨åħ¬": 2511,
      "ä¸ĢæĹ¥": 2512,
      "èļĢ": 2513,
      "å¦ĸ": 2514,
      "æĬĹ": 2515,
      "ç¿Ĭ": 2516,
      "å®£å¸Ŀ": 2517,
      "é»ĦéĹ¨ä¾įéĥİ": 2518,
      "è¶ĭ": 2519,
      "åį§": 2520,
      "ä¸ºçİĭ": 2521,
      "çĶ¨ä¹ĭ": 2522,
      "åŀĴ": 2523,
      "æĥľ": 2524,
      "é£Łä¹ĭ": 2525,
      "ç»ª": 2526,
      "æ¢¦": 2527,
      "éĹµ": 2528,
      "âĢĻ": 2529,
      "æĬĳ": 2530,
      "çĪ¶æ¯į": 2531,
      "æģª": 2532,
      "è¶³ä»¥": 2533,
      "âĢĺ": 2534,
      "æĪĺäºİ": 2535,
      "éľį": 2536,
      "èĤ¥": 2537,
      "éĵ¶": 2538,
      "åĲ¹": 2539,
      "ç¼ĺ": 2540,
      "ç¿Ł": 2541,
      "éĵľ": 2542,
      "å©¢": 2543,
      "è¯¸çİĭ": 2544,
      "éĦĻ": 2545,
      "èĿ": 2546,
      "é¸¡": 2547,
      "äº«": 2548,
      "é¢įå·Ŀ": 2549,
      "åĨ¢": 2550,
      "è®¿": 2551,
      "éĺ³éĥ¡": 2552,
      "è¯ķ": 2553,
      "ä¸Ĭçĸı": 2554,
      "é¢ĨåĨĽ": 2555,
      "æıĲ": 2556,
      "æĨ": 2557,
      "åıĻ": 2558,
      "æĿĲ": 2559,
      "åįģåħ«": 2560,
      "æĵ¢": 2561,
      "ç¾¤èĩ£": 2562,
      "åº¾": 2563,
      "æĺ¯ä¸º": 2564,
      "åĲķç¿»": 2565,
      "çŁľ": 2566,
      "ä¾ĭ": 2567,
      "åıĹåĳ½": 2568,
      "åħ¶ä¼Ĺ": 2569,
      "æĢª": 2570,
      "é¡Ķ": 2571,
      "åħ¶äºº": 2572,
      "æ¹Ľ": 2573,
      "å¤ªåı²": 2574,
      "ä¸īæĹ¥": 2575,
      "è¾ħåĽ½": 2576,
      "åħ«çĻ¾": 2577,
      "ä¹ĭæľī": 2578,
      "ä¸Ĭä¸ĭ": 2579,
      "çĹĽ": 2580,
      "å¹½å·ŀ": 2581,
      "éĻĲ": 2582,
      "æĿľé¢Ħ": 2583,
      "çŁ«": 2584,
      "ä¸įè¿ĩ": 2585,
      "åİ¯": 2586,
      "é£¨": 2587,
      "æ®Ĩ": 2588,
      "æĹłä¸į": 2589,
      "éĺģ": 2590,
      "æĭ¬åľ°å¿Ĺ": 2591,
      "çĶ²åŃĲ": 2592,
      "è´¯": 2593,
      "æªĢ": 2594,
      "äºİæĹ¶": 2595,
      "æķ´": 2596,
      "ç»¥": 2597,
      "åª": 2598,
      "äººçļĨ": 2599,
      "æĺİåłĤ": 2600,
      "ç¹ģ": 2601,
      "èĢĮåİ»": 2602,
      "ä¸Ńå¤§å¤«": 2603,
      "åĢŁ": 2604,
      "éĺ³å¤ªå®Ī": 2605,
      "éĥ¡åİ¿": 2606,
      "å¤©ä¸ĭä¹ĭ": 2607,
      "æĶ¹åħĥ": 2608,
      "è¿Ī": 2609,
      "åĿĽ": 2610,
      "å¸Ĳ": 2611,
      "å¹³ä¹ĭ": 2612,
      "ç´¯è¿ģ": 2613,
      "ä¾ĥ": 2614,
      "æĹłä»¥": 2615,
      "åĲĽä¹ĭ": 2616,
      "åĪ°ç¿»": 2617,
      "æĪĲéĥ½": 2618,
      "çºĤ": 2619,
      "èµµçİĭ": 2620,
      "åı³ä»Ĩå°Ħ": 2621,
      "è«¡": 2622,
      "éĤķ": 2623,
      "åģı": 2624,
      "ä¸įåĲ¬": 2625,
      "ç§Ł": 2626,
      "è±«å·ŀåĪºåı²": 2627,
      "æ²³åĨħ": 2628,
      "è´°": 2629,
      "åįĹå°ĨåĨĽ": 2630,
      "è³Ķ": 2631,
      "åĳĺå¤ĸ": 2632,
      "èĭ»": 2633,
      "ä½¿çĸı": 2634,
      "ä¹ĭæĦı": 2635,
      "åĮº": 2636,
      "å²¸": 2637,
      "ä¼Ł": 2638,
      "æī¬å·ŀ": 2639,
      "ä¹ı": 2640,
      "åģľ": 2641,
      "é½¿": 2642,
      "æ¡Ĥ": 2643,
      "æ¯Ĺ": 2644,
      "æ±īå±ŀ": 2645,
      "éªĥæ¡Ī": 2646,
      "åĭī": 2647,
      "åĭŁ": 2648,
      "å¶": 2649,
      "æĸĩçİĭ": 2650,
      "å½ĵæĹ¶": 2651,
      "æ¤į": 2652,
      "å¤§æĢĴ": 2653,
      "éĽª": 2654,
      "éķ¿æ²Ļ": 2655,
      "è¾½ä¸ľ": 2656,
      "ä¹Łä»Ĭ": 2657,
      "åıĪä»¥": 2658,
      "èį§": 2659,
      "åĬ¾": 2660,
      "ä½¿çĸıåĲıç¿»": 2661,
      "è½©": 2662,
      "å¤įä¸º": 2663,
      "å¿ħæľī": 2664,
      "ä¹ĸ": 2665,
      "æ¯Ĵ": 2666,
      "çĬ¬": 2667,
      "ä¸ĸå®Ĺ": 2668,
      "æ²³åĮĹ": 2669,
      "å¾Ħ": 2670,
      "ï¼ļãĢİ": 2671,
      "åħĥåĺī": 2672,
      "è®¼": 2673,
      "èĩªæĺ¯": 2674,
      "å®īå®ļ": 2675,
      "å¾Ĳå·ŀåĪºåı²": 2676,
      "æ³¢": 2677,
      "åŀ£": 2678,
      "åĩīå·ŀ": 2679,
      "åĽ½åħ¬": 2680,
      "èĥĦ": 2681,
      "æŀĦ": 2682,
      "æīĢæĿĢ": 2683,
      "æ³¨æĽ°": 2684,
      "åįģä¸ĥ": 2685,
      "åģĥ": 2686,
      "çİĭåŃĲ": 2687,
      "åĩºåħ¥": 2688,
      "åĲıéĥ¨å°ļä¹¦": 2689,
      "æĹĭ": 2690,
      "æ±īä¸Ń": 2691,
      "æĬ±": 2692,
      "è½¦éªĳå°ĨåĨĽ": 2693,
      "ä¸įèĩª": 2694,
      "éĽ¶": 2695,
      "æħ§": 2696,
      "è°Ī": 2697,
      "åįģæľī": 2698,
      "éĵ¸": 2699,
      "éĤ¢": 2700,
      "çĳŀ": 2701,
      "ä¸ĸåŃĲ": 2702,
      "æ³¾": 2703,
      "å®ŀéĮ²": 2704,
      "è¥Ħéĺ³": 2705,
      "èĢħä»¥": 2706,
      "åīĬ": 2707,
      "ä¾¯æĻ¯": 2708,
      "éļĻ": 2709,
      "å»ºæŃ¦": 2710,
      "å®°çĽ¸": 2711,
      "é«Ļç¥ĸ": 2712,
      "ç¬Ķ": 2713,
      "å·¢": 2714,
      "èĩ£ä¹ĭ": 2715,
      "è°ĵæĽ°": 2716,
      "éĽĨè§§": 2717,
      "åĲĬ": 2718,
      "åļ": 2719,
      "ä½ĻéĩĮ": 2720,
      "å¹¿éĻµ": 2721,
      "æĤ¼": 2722,
      "åįĴåŃĲ": 2723,
      "å¤§éĥ½çĿ£": 2724,
      "èµĸ": 2725,
      "åħĸå·ŀåĪºåı²": 2726,
      "èĬ®": 2727,
      "æĹģ": 2728,
      "éķ¿åŃĲ": 2729,
      "å¹¶å·ŀ": 2730,
      "æ¬£": 2731,
      "ä¸ľå°ĨåĨĽ": 2732,
      "çļĨä»¥": 2733,
      "å¨Ħ": 2734,
      "åįģä¸Ģå¹´": 2735,
      "èĩªç§°": 2736,
      "åħ¶åľ°": 2737,
      "ç½Ķ": 2738,
      "å§ľ": 2739,
      "å°Ĵ": 2740,
      "ä¸¾åħµ": 2741,
      "ä¸¤ç¿»": 2742,
      "èį§æĥĳ": 2743,
      "å®»": 2744,
      "æĭ¥": 2745,
      "ä»¥åĬŁ": 2746,
      "ä¸įè¡Į": 2747,
      "è¯¸èĳĽ": 2748,
      "äººä»¥": 2749,
      "å¥¢": 2750,
      "ä»£ä¹ĭ": 2751,
      "çıł": 2752,
      "ä¸įä¸İ": 2753,
      "åı¹æĽ°": 2754,
      "åį´": 2755,
      "éĻħ": 2756,
      "ä¸ĬæĹ¶": 2757,
      "åĨĽä¸Ń": 2758,
      "éĿĸ": 2759,
      "åĵ²": 2760,
      "ï¼ļ\"": 2761,
      "é¢ĸ": 2762,
      "èĪħ": 2763,
      "å¯Ľ": 2764,
      "çĪ°": 2765,
      "éĹ¨ä¸ĭ": 2766,
      "ä¸Ĭåį·": 2767,
      "ãĢĤ\"": 2768,
      "åĥŃ": 2769,
      "åħ¶ä¸į": 2770,
      "åĮ¿": 2771,
      "è°Ł": 2772,
      "æ±īçİĭ": 2773,
      "çıª": 2774,
      "è±«å·ŀ": 2775,
      "éĽįå·ŀ": 2776,
      "ä¹ĭä¼Ĺ": 2777,
      "åħ¨å¿ł": 2778,
      "å°Ĵæľ±": 2779,
      "ä¸įåıĹ": 2780,
      "åĪ¤": 2781,
      "åŃĲå¼Ł": 2782,
      "åħ¶ä½Ļ": 2783,
      "èµ·åħµ": 2784,
      "ä¼į": 2785,
      "åı¡": 2786,
      "ä¸įå®ľ": 2787,
      "ä¹Łè¨Ģ": 2788,
      "çĲ³": 2789,
      "æİĮç¿»": 2790,
      "ãĢĤãĢı": 2791,
      "å¤ªåº·": 2792,
      "è¡Ķ": 2793,
      "æ²³è¥¿": 2794,
      "ç¥Ŀ": 2795,
      "çĽĬå·ŀ": 2796,
      "åįĸ": 2797,
      "ç§ī": 2798,
      "æĦ¤": 2799,
      "æ±Łå¤ı": 2800,
      "èīº": 2801,
      "ä¹ĭåŃĲä¹Ł": 2802,
      "è§Ĵç¿»": 2803,
      "æĤŁ": 2804,
      "åĨĢå·ŀ": 2805,
      "éĤ¯": 2806,
      "è£ģ": 2807,
      "ä¹ĥæŃ¢": 2808,
      "åĲĲèķĥ": 2809,
      "ä»¥èĩª": 2810,
      "å¤§è´¥": 2811,
      "çŀ»": 2812,
      "èĢĮæŃ»": 2813,
      "å¹³ç«ł": 2814,
      "æķ°æīĢ": 2815,
      "å½§": 2816,
      "éĢ®": 2817,
      "åı¯è°ĵ": 2818,
      "éª§": 2819,
      "ä¸įèĩ³": 2820,
      "ç¨İ": 2821,
      "ð¬": 2822,
      "å¼ĳ": 2823,
      "åįģä¸ĩ": 2824,
      "åĲıéĥ¨": 2825,
      "èĦ©": 2826,
      "ä¸ºå¤ª": 2827,
      "å¦Ļ": 2828,
      "äººæľī": 2829,
      "çļĩåŃĲ": 2830,
      "éĻĪçķĻ": 2831,
      "é»Ħå¸Ŀ": 2832,
      "åŃĿæĸĩ": 2833,
      "éªłéªĳå¤§å°ĨåĨĽ": 2834,
      "ç³": 2835,
      "å±ı": 2836,
      "åħ¶åĽ½": 2837,
      "çļĵ": 2838,
      "ä¸ĬæĹ¶æİĮç¿»": 2839,
      "ç»¢": 2840,
      "éĢļéī´": 2841,
      "å«ģ": 2842,
      "è¾Ī": 2843,
      "èĻĲ": 2844,
      "èµ«": 2845,
      "ä¸ľè¥¿": 2846,
      "åĲıæ°ĳ": 2847,
      "åĲİéŃı": 2848,
      "åıĬåħ¶": 2849,
      "çĭĲ": 2850,
      "ç«Ŀ": 2851,
      "é¢Ĥ": 2852,
      "åħĸå·ŀ": 2853,
      "éŁ¶": 2854,
      "ä¹Ĥ": 2855,
      "å¦¹": 2856,
      "èĮį": 2857,
      "æ®¿ä¸Ń": 2858,
      "ç½ķ": 2859,
      "å·«": 2860,
      "ä¸ľéĥ½": 2861,
      "ç¥ŃéħĴ": 2862,
      "é²ľåįĳ": 2863,
      "å¥Ī": 2864,
      "ä¸Ĭè¡¨": 2865,
      "å¯Ħç¿»": 2866,
      "çİĭæĽ°": 2867,
      "ç¿Ķ": 2868,
      "æĺ¯å²ģ": 2869,
      "é¸¾": 2870,
      "ä¹Ĩ": 2871,
      "åĽĽåįĥ": 2872,
      "äºĮå·ŀ": 2873,
      "æķħä¹Ł": 2874,
      "è¼": 2875,
      "å·§": 2876,
      "ä¸įè¨Ģ": 2877,
      "å©ļ": 2878,
      "å½»": 2879,
      "çļĨæľī": 2880,
      "ä¸ºå¤ªåŃĲ": 2881,
      "å½°": 2882,
      "è±¹": 2883,
      "è¯¬": 2884,
      "åĮ»": 2885,
      "æ´½": 2886,
      "å¿¿": 2887,
      "æµª": 2888,
      "çİ©": 2889,
      "ä¸Ńä¹¦ä»¤": 2890,
      "ä¸įåĩº": 2891,
      "åĨĽäºĭ": 2892,
      "ç«¥": 2893,
      "åį«å°ĨåĨĽ": 2894,
      "å¹³ç«łäºĭ": 2895,
      "ä¸ºå°ļä¹¦": 2896,
      "åħ³ä¸Ń": 2897,
      "çĴĭ": 2898,
      "æĻĵ": 2899,
      "ä¹ĥä»¥": 2900,
      "æĶ¿äºĭ": 2901,
      "éĽįå·ŀåĪºåı²": 2902,
      "åĬĴ": 2903,
      "èĩªæĿĢ": 2904,
      "åĲįä¹Ł": 2905,
      "èįĨå·ŀåĪºåı²": 2906,
      "ä»Ĭä¹ĭ": 2907,
      "èį¥": 2908,
      "è¬": 2909,
      "çĦ¶åĪĻ": 2910,
      "æķ·": 2911,
      "åĮĹå°ĨåĨĽ": 2912,
      "ä¸ĢæĹ¶": 2913,
      "ä¹°": 2914,
      "ä½ľä¹±": 2915,
      "æ²³éĹ´": 2916,
      "è§ģä¹ĭ": 2917,
      "å¢¨": 2918,
      "å¾¡åı²å¤§å¤«": 2919,
      "èį·": 2920,
      "å±±ä¸ľ": 2921,
      "æ°´ç»ı": 2922,
      "è®¥": 2923,
      "èĻ«": 2924,
      "è¡Įä¹ĭ": 2925,
      "çķ¿": 2926,
      "î®": 2927,
      "æĪĪ": 2928,
      "è±Ĩ": 2929,
      "ï¼ģâĢĿ": 2930,
      "å¬": 2931,
      "çº¥": 2932,
      "å½ĵä½ľ": 2933,
      "ä¸Ńä¹¦ä¾įéĥİ": 2934,
      "ä½ķä¸º": 2935,
      "å·²ä¸ĭ": 2936,
      "èī¾": 2937,
      "å»ºåº·": 2938,
      "ä¸Ńä¸ŀ": 2939,
      "åįĹåĮĹ": 2940,
      "éĽĢ": 2941,
      "å¸Ŀä»¥": 2942,
      "ç¶": 2943,
      "èĢĮæľī": 2944,
      "æĿŁ": 2945,
      "æĶ»ä¹ĭ": 2946,
      "éĸ": 2947,
      "çķħ": 2948,
      "ç¼ĵ": 2949,
      "ä¹ĭå¾Ĵ": 2950,
      "å¨ģå°ĨåĨĽ": 2951,
      "åĤ¨": 2952,
      "éĿĴå·ŀ": 2953,
      "æĹĮ": 2954,
      "æĮ¥": 2955,
      "èĢħä¸º": 2956,
      "æģ¢": 2957,
      "çĽ¸åĽ½": 2958,
      "é¢ľ": 2959,
      "çĸĨ": 2960,
      "è¯ıä»¥": 2961,
      "ä¸įèĤ¯": 2962,
      "çļĨä¸º": 2963,
      "å¾Ĺåħ¶": 2964,
      "ä¸ķ": 2965,
      "æĽ°ä»Ĭ": 2966,
      "çĽĺ": 2967,
      "éº¾": 2968,
      "æĭ¬åľ°å¿Ĺäºĳ": 2969,
      "èĶ½": 2970,
      "æĦį": 2971,
      "è¯¸åŃĲ": 2972,
      "æ»ĳ": 2973,
      "åĬ«": 2974,
      "å¤§äºĭ": 2975,
      "å¤§åĨĽ": 2976,
      "åħ¬ä¹ĭ": 2977,
      "è¥¿åŁŁ": 2978,
      "ä¸¹éĺ³": 2979,
      "æĹ·": 2980,
      "èµĤ": 2981,
      "çĢ": 2982,
      "æĺ¶": 2983,
      "æĻĭçİĭ": 2984,
      "æ±ŁåįĹ": 2985,
      "éĥ¡å®Ī": 2986,
      "æ·ĳ": 2987,
      "æ°ıä¹ĭ": 2988,
      "è°Ń": 2989,
      "æĪĲå¸Ŀ": 2990,
      "éĶĲ": 2991,
      "åĨķ": 2992,
      "äºİä¸Ĭ": 2993,
      "éģ½": 2994,
      "æį·": 2995,
      "ç¹ĩ": 2996,
      "å¾ĥ": 2997,
      "éģį": 2998,
      "è°·æµĳ": 2999,
      "åº¶åŃĲ": 3000,
      "äº¦æľī": 3001,
      "åıĹç¦ħ": 3002,
      "è¯Ľä¹ĭ": 3003,
      "ä¸ºä¸Ń": 3004,
      "ä¸ºä¸Ģ": 3005,
      "ä¸įçĽ¸": 3006,
      "å¼©": 3007,
      "åĪĥ": 3008,
      "æĭŁ": 3009,
      "è®«": 3010,
      "é©¿": 3011,
      "éĥ¡çİĭ": 3012,
      "çī²": 3013,
      "éĻĩè¥¿": 3014,
      "èłķèłķ": 3015,
      "åĨĴ": 3016,
      "éĢµ": 3017,
      "åħ¶å®¶": 3018,
      "åĲİä¸»": 3019,
      "éĽĴ": 3020,
      "åĲĽèĩ£": 3021,
      "åĲĲè°·æµĳ": 3022,
      "çį": 3023,
      "ä½©": 3024,
      "ç§ĳ": 3025,
      "éĤ»": 3026,
      "ä¸įçĦ¶": 3027,
      "æµļ": 3028,
      "æ³¨äºĳ": 3029,
      "îĸ": 3030,
      "æŃĨ": 3031,
      "ä¸Ģå¹´": 3032,
      "ä¸Ĭè¨Ģ": 3033,
      "ä¸ĸä¹ĭ": 3034,
      "å¸¸å±±": 3035,
      "è¤Ĵ": 3036,
      "æľĿè´¡": 3037,
      "å¿ĹæĽ°": 3038,
      "åıĳåħµ": 3039,
      "ä¹ħä¹ĭ": 3040,
      "çģĮ": 3041,
      "æ°¸å®ī": 3042,
      "åįģåħŃå¹´": 3043,
      "åĲĮå¹³ç«łäºĭ": 3044,
      "èĬ³": 3045,
      "çľĢ": 3046,
      "éĨī": 3047,
      "åįģäºĮå¹´": 3048,
      "åľ£äºº": 3049,
      "ä¹ĭè°ĵ": 3050,
      "èµ¡": 3051,
      "ç¾¡": 3052,
      "æĻ¨": 3053,
      "æķ°ä¸ĩ": 3054,
      "åı¤ä¹ĭ": 3055,
      "åŃ¦å£«": 3056,
      "ä¸ŃæŃ£": 3057,
      "éļĶ": 3058,
      "å°ĳè¯Ĺ": 3059,
      "ç«ĭä¸º": 3060,
      "å«Į": 3061,
      "æĸ©é¦ĸ": 3062,
      "æ¿®": 3063,
      "î©": 3064,
      "å·¾": 3065,
      "å°ĺ": 3066,
      "èĨº": 3067,
      "åĹŁ": 3068,
      "ä¹ĭå¤ĸ": 3069,
      "éħĭ": 3070,
      "æ¶Ī": 3071,
      "èªĵ": 3072,
      "å°ļä¹¦äºĭ": 3073,
      "äººæĽ°": 3074,
      "å®ĥ": 3075,
      "ä¹ĭä¸ĭ": 3076,
      "äºİä¸ľ": 3077,
      "èĭĮ": 3078,
      "å²©": 3079,
      "ç»³": 3080,
      "ç¥Ĺ": 3081,
      "ä¼łäºĳ": 3082,
      "ä¸įæ¬²": 3083,
      "äºĭä¹ĭ": 3084,
      "åħ¬æĽ°": 3085,
      "åıĸä¹ĭ": 3086,
      "é¥¶": 3087,
      "èĥ¥": 3088,
      "äººä¸º": 3089,
      "èĻ½æľī": 3090,
      "æķ°æīĢè§Ĵç¿»": 3091,
      "åĿł": 3092,
      "îĸ«": 3093,
      "ç»°": 3094,
      "å¨¶": 3095,
      "æĴŃ": 3096,
      "è¾¨": 3097,
      "ä»¥éĹ»": 3098,
      "åĲİä¸º": 3099,
      "æĦ§": 3100,
      "æŀĿ": 3101,
      "æĬµ": 3102,
      "æĺ§": 3103,
      "æ¼ı": 3104,
      "è¾ħåĽ½å°ĨåĨĽ": 3105,
      "åħ¶å¹´": 3106,
      "æĶ¹æĽ°": 3107,
      "æ¿¬": 3108,
      "æģ£": 3109,
      "çº¬": 3110,
      "è¡ĮåĨĽ": 3111,
      "æĿ°": 3112,
      "æĺ¯æľĪ": 3113,
      "åĿı": 3114,
      "çĲĽ": 3115,
      "äººæīĢ": 3116,
      "å¤§çİĭ": 3117,
      "è¨Ģåħ¶": 3118,
      "æ¡Ģ": 3119,
      "æ³Ħ": 3120,
      "æŀ¢": 3121,
      "åľ°çĲĨ": 3122,
      "éĢļçĽ´": 3123,
      "ç¾½æŀĹ": 3124,
      "æ´Ĺ": 3125,
      "ä¸įåºĶ": 3126,
      "æ²»çĽ´": 3127,
      "èĢħä¸į": 3128,
      "çŁ©": 3129,
      "éĺ³ä¾¯": 3130,
      "åĳ¨ç¤¼": 3131,
      "å¾ģèĻı": 3132,
      "ä½ĳ": 3133,
      "æµ·åĨħ": 3134,
      "çĶ²å¯ħ": 3135,
      "æģ¶ä¹ĭ": 3136,
      "ä¸ºå·¦": 3137,
      "å±Ģ": 3138,
      "éĢ¹": 3139,
      "çº£": 3140,
      "å¥½åŃ¦": 3141,
      "èĩªä»¥": 3142,
      "èĥª": 3143,
      "æ³Ĺ": 3144,
      "éĻįæĪ·": 3145,
      "éķ¿çŁ¥": 3146,
      "æĽ´åĲį": 3147,
      "æªĦ": 3148,
      "è¯µ": 3149,
      "è¯ıä¹¦": 3150,
      "è°ĴèĢħ": 3151,
      "çĭĤ": 3152,
      "ä¸įåı¯ä»¥": 3153,
      "åı·æĽ°": 3154,
      "èĢĨ": 3155,
      "çİĭèİ½": 3156,
      "èĤĩ": 3157,
      "æ³°å§ĭ": 3158,
      "æĪĲçİĭ": 3159,
      "ä¹ĭå®ĺ": 3160,
      "äºĮåŃĲ": 3161,
      "çīµ": 3162,
      "å¦ĩäºº": 3163,
      "æ±´": 3164,
      "è¨ĢæĽ°": 3165,
      "çĨĬ": 3166,
      "ä¹ĿåŁŁ": 3167,
      "æķ£éªĳä¾įéĥİ": 3168,
      "ä½ķå¦Ĥ": 3169,
      "è°ħ": 3170,
      "ç»¼": 3171,
      "å¼ŁåŃĲ": 3172,
      "ç»ĥ": 3173,
      "æµģæ¶ķ": 3174,
      "ä»¥å¾ħ": 3175,
      "èİ±": 3176,
      "ä¹ĭèĩ£": 3177,
      "çºł": 3178,
      "å®Ĺå®¤": 3179,
      "æķĳä¹ĭ": 3180,
      "é³¯": 3181,
      "ä¸įçĶ¨": 3182,
      "é¢İ": 3183,
      "è®°å®¤": 3184,
      "å¥Īä½ķ": 3185,
      "ä¼º": 3186,
      "ï¼ļâĢĺ": 3187,
      "ç¦¾": 3188,
      "æļ®": 3189,
      "æķĸ": 3190,
      "è¡ħ": 3191,
      "äº¦ä¸į": 3192,
      "ä¾įå¾¡åı²": 3193,
      "ä¹ĭåĽ½": 3194,
      "åĲİæ±ī": 3195,
      "æŀī": 3196,
      "ä¹ĭåĲį": 3197,
      "ä¹ĭåĪ¶": 3198,
      "ä¹ĭç½ª": 3199,
      "ä¸Ńå¤ĸ": 3200,
      "æľīç½ª": 3201,
      "ä¸Ģä¸ĩ": 3202,
      "éĤ³": 3203,
      "åįģä¹Ŀ": 3204,
      "è°ıæĽ°": 3205,
      "åŃļ": 3206,
      "è¾Ĥ": 3207,
      "æĭĺ": 3208,
      "ä½ķä¹Ł": 3209,
      "æĸĭ": 3210,
      "å®ĭçĻ½": 3211,
      "è°ĭåıį": 3212,
      "æ¬¾": 3213,
      "çĶ²åįĪ": 3214,
      "åľĨ": 3215,
      "é»ĺ": 3216,
      "é«ĺå®Ĺ": 3217,
      "åįģä¸īå¹´": 3218,
      "å§Ĭ": 3219,
      "éķ¿ä¹Ĳ": 3220,
      "é£İä¿Ĺ": 3221,
      "æ½¼": 3222,
      "èİ½æĽ°": 3223,
      "ä¸Ĭåħļ": 3224,
      "æĹ¶æľī": 3225,
      "åıĪäºĳ": 3226,
      "ä¸ĥåįĥ": 3227,
      "å£¬åįĪ": 3228,
      "è¯ĺ": 3229,
      "åı¤èĢħ": 3230,
      "äºı": 3231,
      "ç«ĸ": 3232,
      "æĶ¹å°ģ": 3233,
      "éĻįæĪ·æ±Łç¿»": 3234,
      "è¾Ľæľª": 3235,
      "åĲİåĳ¨": 3236,
      "åĮĹæµ·": 3237,
      "ä¸ĩä½Ļ": 3238,
      "åŃĶåŃĲæĽ°": 3239,
      "çİ¯": 3240,
      "è°¬": 3241,
      "æµĭ": 3242,
      "åı¤ä»Ĭ": 3243,
      "ðł": 3244,
      "å¤¹": 3245,
      "ä¸ºåĲİ": 3246,
      "îĺ": 3247,
      "æ¡ĵåħ¬": 3248,
      "æľªèĩ³": 3249,
      "åŃĹåŃĲ": 3250,
      "éķ¿çŁ¥ä¸¤ç¿»": 3251,
      "è¯į": 3252,
      "åºļåŃĲ": 3253,
      "åħ¶ä¸Ń": 3254,
      "æľĶæĸ¹": 3255,
      "å¤Ļ": 3256,
      "è¿¥": 3257,
      "ãĢįï¼Į": 3258,
      "åħ¥äºİ": 3259,
      "å±±ä¹ĭ": 3260,
      "èĳĹä½ľ": 3261,
      "çŁ³å¤´": 3262,
      "éº»": 3263,
      "ä½ŀ": 3264,
      "å¯ľ": 3265,
      "è¾ķ": 3266,
      "éªĩ": 3267,
      "æī¬å·ŀåĪºåı²": 3268,
      "æĹ¶ä¸º": 3269,
      "è¾Ľå·³": 3270,
      "çĸ²": 3271,
      "âĢĿï¼Į": 3272,
      "åħĦåŃĲ": 3273,
      "ä¹¡éĩĮ": 3274,
      "æī¶é£İ": 3275,
      "ä¹Ļäº¥": 3276,
      "æ¶¦": 3277,
      "æ½ĺ": 3278,
      "å¤©ä¹ĭ": 3279,
      "è¢ŃçĪµ": 3280,
      "ä¸ľéŃı": 3281,
      "éĽķ": 3282,
      "çĵĮ": 3283,
      "ä»Ģ": 3284,
      "ä¸įåľ¨": 3285,
      "åįģåį·": 3286,
      "äºĶä»£": 3287,
      "èĽĩ": 3288,
      "çĤİ": 3289,
      "åħ¶ç½ª": 3290,
      "æķ°æĹ¥": 3291,
      "é£ŁéĤĳ": 3292,
      "è®ºè¯Ń": 3293,
      "å¥Ħ": 3294,
      "æĸĩåŃ¦": 3295,
      "æ¥·": 3296,
      "å°ıäºº": 3297,
      "æ¬º": 3298,
      "ä¹ĿåŁŁå¿Ĺ": 3299,
      "ä¸Ĭä»¥": 3300,
      "èĩªæŃ¤": 3301,
      "æ»ĭ": 3302,
      "ä¹ĭç¿»": 3303,
      "éĽĨè§£éªĥæ¡Ī": 3304,
      "å¼¹": 3305,
      "æĸ¥": 3306,
      "æ²Ķ": 3307,
      "çŃŃ": 3308,
      "åĲįæĽ°": 3309,
      "åŃĻä¹Ł": 3310,
      "åĿŁ": 3311,
      "åºļçĶ³": 3312,
      "å¯Įè´µ": 3313,
      "ä¹ĭæķħ": 3314,
      "åĩºäºİ": 3315,
      "¡ł": 3316,
      "ãĢĤâĢĻ": 3317,
      "æľªèĥ½": 3318,
      "éºŁ": 3319,
      "æľīä¸į": 3320,
      "éĻľ": 3321,
      "å¤§æĺİ": 3322,
      "äºĮåį·": 3323,
      "ðł¡ł": 3324,
      "èĢĮä¸º": 3325,
      "è´µäºº": 3326,
      "ä¹ĭå±ŀ": 3327,
      "è¯¾": 3328,
      "éĤĪ": 3329,
      "é½Ĳäºº": 3330,
      "èī°": 3331,
      "çħĮ": 3332,
      "æľªåĩł": 3333,
      "æĽ·": 3334,
      "åŁİéĹ¨": 3335,
      "åºļåįĪ": 3336,
      "æĽ°æŃ¤": 3337,
      "è¿«": 3338,
      "è¾Ľäº¥": 3339,
      "è®Ģ": 3340,
      "æµħ": 3341,
      "åıĪéģ£": 3342,
      "æ¸Ķ": 3343,
      "è¿Ľä½į": 3344,
      "î¨£": 3345,
      "ä¸ģå·³": 3346,
      "å°ĳåºľ": 3347,
      "åı¸åĨľ": 3348,
      "èĥ¤": 3349,
      "æłħ": 3350,
      "ä¸ĻåŃĲ": 3351,
      "ç»Ļäºĭä¸Ń": 3352,
      "éĻŁ": 3353,
      "åľ°éľĩ": 3354,
      "æ»¥": 3355,
      "ä¹ĭåĨħ": 3356,
      "æµ¦": 3357,
      "å®īçİĭ": 3358,
      "çļĨä»İ": 3359,
      "ä¸ĩçī©": 3360,
      "åº¶äºº": 3361,
      "åºĶåĬŃ": 3362,
      "çĶ²è¾°": 3363,
      "å£¬è¾°": 3364,
      "ä¸ºåįĹ": 3365,
      "æĻļ": 3366,
      "ä¹Ļä¸ĳ": 3367,
      "æĻĶ": 3368,
      "éĤĢ": 3369,
      "éķ¿åŃĻ": 3370,
      "ä¹ĭæ³ķ": 3371,
      "ä¹ĿçĻ¾": 3372,
      "éĶ¦": 3373,
      "å®ĭçĻ½æĽ°": 3374,
      "ä¹ĭå¤§": 3375,
      "ç¨¼": 3376,
      "æīįçĶ¨ç¿»": 3377,
      "çĳľ": 3378,
      "½æĽ°": 3379,
      "å¹³éĺ³": 3380,
      "å£¬çĶ³": 3381,
      "çĴ§": 3382,
      "ä¹ŁéŁ³": 3383,
      "åħįå®ĺ": 3384,
      "åĨłåĨĽå°ĨåĨĽ": 3385,
      "èĢĮåĩº": 3386,
      "å¤įä»¥": 3387,
      "éĺ²æĽ°": 3388,
      "å·ŀåİ¿": 3389,
      "çļĩçĶ«": 3390,
      "çĭĹ": 3391,
      "é¾Ļéª§": 3392,
      "é¸¿èĥª": 3393,
      "éĤ¾": 3394,
      "åĪ«é©¾": 3395,
      "åŃĶå®īåĽ½": 3396,
      "éŁ¦æĺŃ": 3397,
      "ä¸īäºº": 3398,
      "æľĪçĬ¯": 3399,
      "åĳ¨æĸĩ": 3400,
      "è°Ĺ": 3401,
      "å¤§å°Ĩ": 3402,
      "å·¦ä¸ŀ": 3403,
      "çĲ¼": 3404,
      "è·ĭ": 3405,
      "æ½ŀ": 3406,
      "äºİä¸ĸ": 3407,
      "æ±²": 3408,
      "î©Ľ": 3409,
      "ä¹ĭèĢħ": 3410,
      "æ³¥": 3411,
      "çĨŁ": 3412,
      "å£¬åŃĲ": 3413,
      "çĽĹè´¼": 3414,
      "ä»¥åĲİ": 3415,
      "æĮŁ": 3416,
      "ç¼ĸ": 3417,
      "çĶ²çĶ³": 3418,
      "ä¸ĻåįĪ": 3419,
      "åĽºè¾ŀ": 3420,
      "æ£º": 3421,
      "åĨ¯ç¿Ĭ": 3422,
      "åħ¶çĪ¶": 3423,
      "åħ¶æ¯į": 3424,
      "çĲ°": 3425,
      "çĤ½": 3426,
      "ä¹ĭåĪĻ": 3427,
      "æ¡ĥ": 3428,
      "è¾Ľéħī": 3429,
      "æ£ĺ": 3430,
      "æĹłå¤į": 3431,
      "æķ°å¹´": 3432,
      "æĺĻ": 3433,
      "ä¸Ńåħ´": 3434,
      "å¼Łä¹Ł": 3435,
      "åĬŁæĽ¹": 3436,
      "æħĻ": 3437,
      "èĩ£æĽ°": 3438,
      "åĲ´åħ´": 3439,
      "çĩķçİĭ": 3440,
      "åĪĹä¾¯": 3441,
      "ä¸ºä¸ŀçĽ¸": 3442,
      "è°§": 3443,
      "é¢¢": 3444,
      "åºŁå¸Ŀ": 3445,
      "æĿ¿": 3446,
      "èµį": 3447,
      "å·±äº¥": 3448,
      "æľīå¼Ĥ": 3449,
      "å·ŀæĢ»ç®¡": 3450,
      "èİĴ": 3451,
      "éĹ»åħ¶": 3452,
      "æŃ¦å®ļ": 3453,
      "è½®": 3454,
      "å·±å·³": 3455,
      "æĪĬçĶ³": 3456,
      "å®¥": 3457,
      "æłĹ": 3458,
      "æĪĬè¾°": 3459,
      "æĪĬåįĪ": 3460,
      "åľ°çĲĨå¿Ĺ": 3461,
      "èĢĮç«ĭ": 3462,
      "çİĭåħ¬": 3463,
      "å®īéĥ½": 3464,
      "äºĳä¸Ń": 3465,
      "æ¢ĵ": 3466,
      "éĴ§": 3467,
      "é¢Ĩåİ¿": 3468,
      "çĶ·å¥³": 3469,
      "åļ£": 3470,
      "è®Ģèĭ¥": 3471,
      "æĪĸæĽ°": 3472,
      "å·±ä¸ĳ": 3473,
      "å£¬å¯ħ": 3474,
      "æīĢä¸º": 3475,
      "åīįä¹¦": 3476,
      "å¶·": 3477,
      "éĽī": 3478,
      "å¥½åĳ¼": 3479,
      "ä¹Ļåį¯": 3480,
      "å±ķ": 3481,
      "è§ģåħ¶": 3482,
      "å±±åľ¨": 3483,
      "èĲĮ": 3484,
      "ä¸ģäº¥": 3485,
      "çĻ¸äº¥": 3486,
      "îŀ": 3487,
      "è¯°": 3488,
      "è°¤": 3489,
      "çº·": 3490,
      "ä¿ĺ": 3491,
      "ä»İæīįçĶ¨ç¿»": 3492,
      "æĮĩæĮ¥": 3493,
      "åĨĮ": 3494,
      "åĪĺæ°ı": 3495,
      "ç¼º": 3496,
      "ä¸ģæľª": 3497,
      "èį¥éĺ³": 3498,
      "åħŃåįĥ": 3499,
      "åģ¥": 3500,
      "çĵĴ": 3501,
      "ä¹ĭå¿Ĺ": 3502,
      "åĨ°": 3503,
      "æľīä½Ļ": 3504,
      "ä¿¨": 3505,
      "èĻĶ": 3506,
      "æľªåı¯": 3507,
      "å¤ªå¹³": 3508,
      "æļĩ": 3509,
      "èİ«æķ¢": 3510,
      "åĥ§è¾©": 3511,
      "æĦĶ": 3512,
      "åĺīä¹ĭ": 3513,
      "æķŀ": 3514,
      "åĨĽäºİ": 3515,
      "ä¹Ļæľª": 3516,
      "è¿ĺå®«": 3517,
      "æĪĬåŃĲ": 3518,
      "è¥ĥ": 3519,
      "ä¸ģéħī": 3520,
      "å¡«": 3521,
      "åħ«åįĥ": 3522,
      "éªĳç«Ĵ": 3523,
      "éĻįäºİ": 3524,
      "æ²»éĢļéī´": 3525,
      "èµĦæ²»éĢļéī´": 3526,
      "æĺİæĹ¥": 3527,
      "ç©¿": 3528,
      "èī¸": 3529,
      "è¶³ä¸ĭ": 3530,
      "è¿½èµł": 3531,
      "åºļå¯ħ": 3532,
      "äº¢": 3533,
      "ä¸ºåı³": 3534,
      "ä¾Ī": 3535,
      "ä¸īåį·": 3536,
      "æ²ĥ": 3537,
      "åĮª": 3538,
      "éĴ©": 3539,
      "äºĮåįģåĽĽ": 3540,
      "ä¸ģä¸ĳ": 3541,
      "è¾Ľä¸ĳ": 3542,
      "èĢ¿": 3543,
      "ç¿»ä¸ĭåĲĮ": 3544,
      "éħ·": 3545,
      "é¦Ļ": 3546,
      "å¥½åĳ¼åĪ°ç¿»": 3547,
      "çĽ¸ä¸İ": 3548,
      "çŁ¥åĲį": 3549,
      "åĬŁèĩ£": 3550,
      "æ¥ļçİĭ": 3551,
      "å²Ĥåı¯": 3552,
      "éĺ´éĺ³": 3553,
      "äººæĥħ": 3554,
      "ä¸Ńå°ī": 3555,
      "åĪĻæľī": 3556,
      "å«¡": 3557,
      "é¼ĵåĲ¹": 3558,
      "ä¸ºä¸Ĭ": 3559,
      "å¼łæľ¬": 3560,
      "éĴº": 3561,
      "è°Ĭ": 3562,
      "æ°´åĩº": 3563,
      "äºĮåįģäºĶ": 3564,
      "åĢ¼": 3565,
      "çĻ¸å·³": 3566,
      "å¤ªä»Ĩ": 3567,
      "ä¸Ģä½ľ": 3568,
      "ä¸ľæĸ¹": 3569,
      "å¦Ĥæ·³": 3570,
      "è¿Ľåı·": 3571,
      "ä¸įåĪ©": 3572,
      "æĻĥ": 3573,
      "å¤ĦæĺĮ": 3574,
      "æŃ¥éªĳ": 3575,
      "è¯ī": 3576,
      "æľīä¸Ģ": 3577,
      "çĶĦ": 3578,
      "æ´²": 3579,
      "éĩĳåŁİ": 3580,
      "ä¸Ļè¾°": 3581,
      "èĤĥå®Ĺ": 3582,
      "åĴ¨è®®": 3583,
      "çĶ²æĪĮ": 3584,
      "äºİé½Ĳ": 3585,
      "é¢Ļ": 3586,
      "åĵį": 3587,
      "éĽł": 3588,
      "æĽ´å§ĭ": 3589,
      "ä¸Ļå¯ħ": 3590,
      "çĻ¸æľª": 3591,
      "æĭĴä¹ĭ": 3592,
      "æķ°åįĥäºº": 3593,
      "ä¸ºåı¸ç©º": 3594,
      "å¾ĵ": 3595,
      "æģķ": 3596,
      "èŃ¦": 3597,
      "å¤ĦæĺĮåĲķç¿»": 3598,
      "ä¸įèĥľ": 3599,
      "æķĿ": 3600,
      "åŁİä¸ĭ": 3601,
      "æĿľé¢ĦæĽ°": 3602,
      "æĺ¯æķħ": 3603,
      "ä¸ĩä½Ļäºº": 3604,
      "æ³°å±±": 3605,
      "å¼ĢçļĩåĪĿ": 3606,
      "äººä¸»": 3607,
      "æĻŁ": 3608,
      "æ³Ľ": 3609,
      "çĻ¸éħī": 3610,
      "å®īå¸Ŀ": 3611,
      "åİ¿æľī": 3612,
      "è¼Ļ": 3613,
      "èĩ¯": 3614,
      "æ²Ł": 3615,
      "éľľ": 3616,
      "å¾¡åı²ä¸Ńä¸ŀ": 3617,
      "ä¹ĭèĩ³": 3618,
      "åħµé©¬": 3619,
      "ä¸ĭéĤ³": 3620,
      "ä¸İåħ¶": 3621,
      "åĽĽæĹ¶": 3622,
      "å®«å®¤": 3623,
      "ç¦Ģ": 3624,
      "éªĳç«Ĵå¯Ħç¿»": 3625,
      "äºİå¤©": 3626,
      "æºª": 3627,
      "çĴŀ": 3628,
      "æº¢": 3629,
      "åķĵ": 3630,
      "å¤ĺ": 3631,
      "ä¸ºåı¸å¾Ĵ": 3632,
      "éĻ¨": 3633,
      "åĨ¬èĩ³": 3634,
      "ä¹Ļå·³": 3635,
      "æķħåŁİåľ¨ä»Ĭ": 3636,
      "å¹³åŁİ": 3637,
      "éŁ³ä¹ī": 3638,
      "çĿ¦": 3639,
      "çĤĢ": 3640,
      "æĪĬå¯ħ": 3641,
      "éŀŃ": 3642,
      "å³¤": 3643,
      "èĢĮè¡Į": 3644,
      "æŃ»äºİ": 3645,
      "æ±Łå·¦": 3646,
      "äºĴ": 3647,
      "ä¹ĭè®¡": 3648,
      "ä¸įåħĭ": 3649,
      "æ¿Ģ": 3650,
      "éŁ³æ´Ľ": 3651,
      "åĢļ": 3652,
      "éĺ¼": 3653,
      "å¤ªå¸Ī": 3654,
      "èĬĿ": 3655,
      "î»": 3656,
      "äººä¸į": 3657,
      "æĺ¯å¹´": 3658,
      "æħ¨": 3659,
      "å¤ıä¾¯": 3660,
      "æļĹ": 3661,
      "ä¹ĭåħµ": 3662,
      "æĸĩæĽ°": 3663,
      "è£Ķ": 3664,
      "æŃ£ä¹īæĭ¬åľ°å¿Ĺäºĳ": 3665,
      "éĹ»èĢĮ": 3666,
      "æĹłåŃĲ": 3667,
      "çľ·": 3668,
      "æŃ¤è¨Ģ": 3669,
      "åĴı": 3670,
      "ä»¥åħµ": 3671,
      "æģº": 3672,
      "å¤ļæīĢ": 3673,
      "åįģåħ«å¹´": 3674,
      "æĿ¥éĻį": 3675,
      "ä¸ºä¾įä¸Ń": 3676,
      "ä½Ĺ": 3677,
      "éĥ¨èĲ½": 3678,
      "ä¸ĢåĲį": 3679,
      "å¤§äºº": 3680,
      "è®½": 3681,
      "åĩ¿": 3682,
      "åĩŃ": 3683,
      "ä¸ľè§Ĥ": 3684,
      "å¤ªåŃ¦": 3685,
      "éĺ²ç¨½": 3686,
      "çľī": 3687,
      "æľ¬å®ĺ": 3688,
      "åĤį": 3689,
      "å¢Ĺ": 3690,
      "ä¸ģåį¯": 3691,
      "åį¦": 3692,
      "è°±": 3693,
      "å¤§å°ı": 3694,
      "æµĬ": 3695,
      "åİ¿åħ¬": 3696,
      "æ´ģ": 3697,
      "ä¿ĦèĢĮ": 3698,
      "å¼¦": 3699,
      "æ²§": 3700,
      "è©¹": 3701,
      "æĹ¥æľīé£Łä¹ĭ": 3702,
      "å¾ĩ": 3703,
      "ä½¿ä¹ĭ": 3704,
      "è¥¿æ²³": 3705,
      "åİ¿åĲį": 3706,
      "ç¼ļ": 3707,
      "æ»ķ": 3708,
      "éº¦": 3709,
      "æīĢå±ħ": 3710,
      "åº¦æĶ¯": 3711,
      "åħĭçĶ¨": 3712,
      "åįģåĽĽå¹´": 3713,
      "åīĳ": 3714,
      "éģ£äºº": 3715,
      "åĪĺæĶ": 3716,
      "æĳ©": 3717,
      "ä¸ºå¤ªå°ī": 3718,
      "åĳ³": 3719,
      "ä¹Ļéħī": 3720,
      "æĳ§": 3721,
      "éªłéªĳå°ĨåĨĽ": 3722,
      "æľĭ": 3723,
      "äºĮå·ŀåĪºåı²": 3724,
      "ç¤¼ä¹Ĳ": 3725,
      "çĲ¨": 3726,
      "å¤ªåºĻ": 3727,
      "èĮħ": 3728,
      "åĩ»çł´ä¹ĭ": 3729,
      "ä¸ºåħ¶": 3730,
      "æīĢéĥ¨": 3731,
      "èĩ³æŃ¤": 3732,
      "åłķ": 3733,
      "ä¸ĻçĶ³": 3734,
      "ä»¥å¤§": 3735,
      "éĻĤ": 3736,
      "åĿ¦": 3737,
      "ä¹ĭå½¹": 3738,
      "åįģäºĶå¹´": 3739,
      "å¤ªä¿Ŀ": 3740,
      "å·±éħī": 3741,
      "æºº": 3742,
      "èĹ»": 3743,
      "èĬ®ç¿»": 3744,
      "å¾ģèĻıå°ĨåĨĽ": 3745,
      "ä¸įå¿į": 3746,
      "å±¬": 3747,
      "çŃīçļĨ": 3748,
      "çĲ´": 3749,
      "å°ĳæľī": 3750,
      "çķĻåĲİ": 3751,
      "ä¼ıè¯Ľ": 3752,
      "æĪĬæĪĮ": 3753,
      "è»": 3754,
      "è¯²": 3755,
      "å¾¼": 3756,
      "è¯¸å·ŀ": 3757,
      "çĬį": 3758,
      "åħĪçİĭ": 3759,
      "èĲ§è¡į": 3760,
      "ä»İäºĭä¸Ńéĥİ": 3761,
      "åħ¶æķħ": 3762,
      "éĺľ": 3763,
      "çīŁ": 3764,
      "æľªåıĬ": 3765,
      "äº¬éĥ½": 3766,
      "æļĳ": 3767,
      "åħ¶æĦı": 3768,
      "æĤĸ": 3769,
      "ç©´": 3770,
      "å®«ä¸Ń": 3771,
      "çĮľ": 3772,
      "å·±æľª": 3773,
      "éĺŁ": 3774,
      "æĸĩè¥Ħ": 3775,
      "åºļè¾°": 3776,
      "å¤§ä¸ļåĪĿ": 3777,
      "ä¸ºåĽ½": 3778,
      "å§ĭçļĩ": 3779,
      "éĿĴå·ŀåĪºåı²": 3780,
      "åıĮ": 3781,
      "æĻĭä¾¯": 3782,
      "è¾Ľåį¯": 3783,
      "å®¾å®¢": 3784,
      "å¼ĭ": 3785,
      "ä¹ĭèĢĮ": 3786,
      "ç»µ": 3787,
      "é½Ĳä¾¯": 3788,
      "ç²Ĺ": 3789,
      "æŀŃ": 3790,
      "å£¬æĪĮ": 3791,
      "å¤©åĳ½": 3792,
      "åĽĽäºº": 3793,
      "è¥¿éŃı": 3794,
      "èĪ°": 3795,
      "åıĸåħ¶": 3796,
      "ç®ķ": 3797,
      "è£Ĥ": 3798,
      "èŃ¬": 3799,
      "å¸Ŀå´©": 3800,
      "è¾ĩ": 3801,
      "éģĵè·¯": 3802,
      "å®ĺèĩ³": 3803,
      "å¾ĢæĿ¥": 3804,
      "ä¹ĭåĪĿ": 3805,
      "è°Ĳ": 3806,
      "æ·¹": 3807,
      "æī«": 3808,
      "ä¹ĲéŁ³æ´Ľ": 3809,
      "æ®¿ä¸ĭ": 3810,
      "éĺİ": 3811,
      "ä¾ł": 3812,
      "æ°ĳä¹ĭ": 3813,
      "æģ¸": 3814,
      "è¡ĮåıĤåĨĽ": 3815,
      "åħĪçĶŁ": 3816,
      "é«ĺä¸½": 3817,
      "éĥ¨æĽ²": 3818,
      "ç¬¬ä¸Ģ": 3819,
      "ä¹Ķ": 3820,
      "æĻĭå±ŀ": 3821,
      "åĪĺæĶ½æĽ°": 3822,
      "çĻ¾ä½Ļ": 3823,
      "ä¸»ä¸Ĭ": 3824,
      "å¸ħä¼Ĺ": 3825,
      "è¤ļ": 3826,
      "æĮĩæĮ¥ä½¿": 3827,
      "ä¹ĥéģ£": 3828,
      "åı¯å¾Ĺ": 3829,
      "è§ģè´¤": 3830,
      "æ±īæĹ§": 3831,
      "ä¸īåįģåħŃ": 3832,
      "çĵ¦": 3833,
      "çĻ¸ä¸ĳ": 3834,
      "æĬ¤åĨĽ": 3835,
      "èĢĥè¯ģ": 3836,
      "æŃ¦æĺĮ": 3837,
      "å®£çİĭ": 3838,
      "åĭĥæµ·": 3839,
      "ä¸ºä¸»": 3840,
      "èĢĮå½Ĵ": 3841,
      "åĬĶ": 3842,
      "ä¸ĸåħħ": 3843,
      "æĬ«": 3844,
      "å·²ä¸Ĭ": 3845,
      "å¹ķ": 3846,
      "ç¥Ī": 3847,
      "å¸Ŀçİĭ": 3848,
      "äºĶå¸Ŀ": 3849,
      "å»ª": 3850,
      "æ°ıä¸º": 3851,
      "ä»¥æĪĲ": 3852,
      "è¯ĳ": 3853,
      "æĪ¾": 3854,
      "ä¾®": 3855,
      "åįĹéĥ¡": 3856,
      "å«Ķ": 3857,
      "å·¥è¡¡": 3858,
      "äºļ": 3859,
      "ä¸ºåħ¬": 3860,
      "æŁı": 3861,
      "å¤§æĤ¦": 3862,
      "æĻŀ": 3863,
      "è¡Įå¹¸": 3864,
      "æ´ŀ": 3865,
      "çī¹è¿Ľ": 3866,
      "ĭç¿»": 3867,
      "ä»¥éĺ²": 3868,
      "è¾ľ": 3869,
      "èĩªåı¤": 3870,
      "åĿĬ": 3871,
      "ä»¥ç¤º": 3872,
      "ç¥ģ": 3873,
      "åŁİåįĹ": 3874,
      "èĩ£çŃī": 3875,
      "çĶ¨äºĭ": 3876,
      "ä¹ĭéĩį": 3877,
      "èĥ¶": 3878,
      "èĥģ": 3879,
      "çĻ¾åĥļ": 3880,
      "éŁ¬": 3881,
      "ç¼ª": 3882,
      "è¿½ä¹ĭ": 3883,
      "é¤": 3884,
      "ä¹ĭéĻħ": 3885,
      "å¾Ĺä¹ĭ": 3886,
      "å¾Ĺåħį": 3887,
      "èµİ": 3888,
      "åįĹéĥĬ": 3889,
      "äºĶä¸ĩ": 3890,
      "æĹ¥è¡Į": 3891,
      "ä¹ĭæĸĩ": 3892,
      "ä»¥å¤ĩ": 3893,
      "åı²è¨Ģ": 3894,
      "çĶ±æŃ¤": 3895,
      "çĳ¾": 3896,
      "äº©": 3897,
      "ä½ı": 3898,
      "å¤ªå¾®": 3899,
      "å»µ": 3900,
      "çº¶": 3901,
      "åĲ´çİĭ": 3902,
      "åı·ä¸º": 3903,
      "é¥®éħĴ": 3904,
      "åĨĽå£«": 3905,
      "çĭ©": 3906,
      "èĴĭ": 3907,
      "æ²»çĽ´ä¹ĭç¿»": 3908,
      "ä»¥å®ī": 3909,
      "åĨī": 3910,
      "éĥ¸": 3911,
      "è¿³": 3912,
      "è½¦éªĳå¤§å°ĨåĨĽ": 3913,
      "èħ¹å¿ĥ": 3914,
      "ç¿¦": 3915,
      "åĮħ": 3916,
      "çĻ¸åį¯": 3917,
      "éĹ°æľĪ": 3918,
      "äºİå¤ĸ": 3919,
      "å°ļä¹¦å·¦ä»Ĩå°Ħ": 3920,
      "å¸·": 3921,
      "ç¤¼ä¹Ł": 3922,
      "çĲ®": 3923,
      "è®®èĢħ": 3924,
      "éģ£ä½¿æľĿè´¡": 3925,
      "ç·": 3926,
      "å®Īä¹ĭ": 3927,
      "æĥłå¸Ŀ": 3928,
      "æ¦Ĩ": 3929,
      "åı²éĥ¨": 3930,
      "æĶ¸ä¹ĭ": 3931,
      "ä¹ĭä¹±": 3932,
      "å¸ģ": 3933,
      "ç»£": 3934,
      "åŁ¶": 3935,
      "å²±": 3936,
      "æ²³éĺ³": 3937,
      "åĨĢå·ŀåĪºåı²": 3938,
      "ç¢ĳ": 3939,
      "ä¸Ŀ": 3940,
      "åİ¿ä¾¯": 3941,
      "æĽ´å·¥è¡¡": 3942,
      "ä¸Ńä¹¦çĽĳ": 3943,
      "æķ°çĻ¾äºº": 3944,
      "ä¹ĭæķ°": 3945,
      "çĽ¸è§ģ": 3946,
      "è¯¸éĥ¡": 3947,
      "å¦Ĥæĺ¯": 3948,
      "åīįéĶĭ": 3949,
      "èĹī": 3950,
      "æĢľ": 3951,
      "æ®Ħ": 3952,
      "é¾Ħ": 3953,
      "ä¹ĥä¸İ": 3954,
      "åįĥä½Ļäºº": 3955,
      "èĤ±": 3956,
      "ç²¾åħµ": 3957,
      "ä¸ľéĥ¡": 3958,
      "è¾ħæĶ¿": 3959,
      "åŃº": 3960,
      "è¯«": 3961,
      "ä¸Ĭå¸Ŀ": 3962,
      "æķħäºĳ": 3963,
      "å¦Ĥæ·³æĽ°": 3964,
      "ä»¥åīį": 3965,
      "æĺĤ": 3966,
      "ç§½": 3967,
      "ä¸ĢæĹ¦": 3968,
      "æĿĢåħ¶": 3969,
      "æľīåı¸å¥ı": 3970,
      "è§ģè´¤éģį": 3971,
      "äº·": 3972,
      "æ²¼": 3973,
      "çģ¼": 3974,
      "å®£æŃ¦": 3975,
      "æ¶¿": 3976,
      "åºĲæ±Ł": 3977,
      "éĤł": 3978,
      "å¾Ĺå¤±": 3979,
      "å²Ĥä¸į": 3980,
      "åŃŁç¿»": 3981,
      "å¤©æĸĩ": 3982,
      "å·¦å°ĨåĨĽ": 3983,
      "æ¼Ķ": 3984,
      "çĤĢå¸Ŀ": 3985,
      "ä¸įå°±": 3986,
      "è¿Ķ": 3987,
      "åĲİå®«": 3988,
      "æ±Łå·ŀåĪºåı²": 3989,
      "æĺ±": 3990,
      "åºĬ": 3991,
      "ä½¿åħ¶": 3992,
      "ä¿ĥ": 3993,
      "éļĹ": 3994,
      "å°ĳåį¿": 3995,
      "é¾Ļéª§å°ĨåĨĽ": 3996,
      "äºİè¥¿": 3997,
      "éĺĸ": 3998,
      "ä¸Ģä¹Ł": 3999,
      "å¦Ĥä¹ĭ": 4000,
      "éĩĳç´«": 4001,
      "é¡¹ç¾½": 4002,
      "äº¿": 4003,
      "ä¹ĭè±¡": 4004,
      "ä»¥åĳĬ": 4005,
      "æŁĲ": 4006,
      "ä¸ĻæĪĮ": 4007,
      "èļĢä¹ĭ": 4008,
      "ä¹ĭä»»": 4009,
      "ä¸īè¾ħ": 4010,
      "æģĤ": 4011,
      "åħĪä¸»": 4012,
      "æĻ¯å¸Ŀ": 4013,
      "åı±": 4014,
      "æĸĮ": 4015,
      "å£¤": 4016,
      "èĭ¥ä¸į": 4017,
      "åĩ½": 4018,
      "èĩ³èĩª": 4019,
      "éĤ¯éĥ¸": 4020,
      "îŀµ": 4021,
      "äºĶæĹ¥": 4022,
      "åĮĹåľ°": 4023,
      "éĿŀä¹Ł": 4024,
      "äºĮåįģä½Ļ": 4025,
      "æıĸ": 4026,
      "åįĥä½Ļ": 4027,
      "äº¦ä»¥": 4028,
      "åĢĴ": 4029,
      "î®ĳ": 4030,
      "éģı": 4031,
      "æĦĨ": 4032,
      "ç§¦å·ŀ": 4033,
      "å§ĭåħ´": 4034,
      "æĽ°èĩ£": 4035,
      "è£³": 4036,
      "æĽ´å·¥è¡¡ç¿»": 4037,
      "ä¹ĭéĺ²": 4038,
      "ä»¥çİĭ": 4039,
      "è½¦éªĳ": 4040,
      "çĢĽ": 4041,
      "åı©": 4042,
      "åħ¶æľī": 4043,
      "åįģä¸ĥå¹´": 4044,
      "æīĢè´¥": 4045,
      "åĮł": 4046,
      "äºĶæĺŁ": 4047,
      "å½Ĵäºİ": 4048,
      "å¢Ļ": 4049,
      "æĦ¿éĻĽä¸ĭ": 4050,
      "åľ¨å·ŀ": 4051,
      "çĮ·": 4052,
      "åĲİä»¥": 4053,
      "çķĻå®Ī": 4054,
      "åĩĿ": 4055,
      "éĤ¹": 4056,
      "éĹ¨å¤ĸ": 4057,
      "å·¦æ°ı": 4058,
      "æ°¸åĺī": 4059,
      "æĿľä½ĳ": 4060,
      "åħµåıĤåĨĽ": 4061,
      "åĬ²": 4062,
      "å£¹": 4063,
      "éģ£åħµ": 4064,
      "çĶļä¼Ĺ": 4065,
      "åĥĸ": 4066,
      "åºĨä¹ĭ": 4067,
      "åĲĦæľīå·®": 4068,
      "éĽĴéĺ³": 4069,
      "è¿·": 4070,
      "æīĩ": 4071,
      "ä¸ľå¹³": 4072,
      "æķħä»¥": 4073,
      "å®ĺå±ŀ": 4074,
      "çŃ®": 4075,
      "åĭ°": 4076,
      "æ··": 4077,
      "é»Ķ": 4078,
      "æħ¢": 4079,
      "è¯¢": 4080,
      "æŁ´": 4081,
      "æ»ŀ": 4082,
      "æ¤¿": 4083,
      "äºĭä¹Ł": 4084,
      "æ°¸å¹³": 4085,
      "å¼ģ": 4086,
      "å¤§æ°´": 4087,
      "æ±¡": 4088,
      "åİ¿ä»¤": 4089,
      "æ±īä¹ĭ": 4090,
      "å½ķå°ļä¹¦äºĭ": 4091,
      "éŁ³ä¹īæĽ°": 4092,
      "è§ģè´¤éģįç¿»": 4093,
      "èĢĮåįĴ": 4094,
      "ä¸ŃåĨĽ": 4095,
      "èĩªç«ĭ": 4096,
      "å§¿": 4097,
      "åıĶçĪ¶": 4098,
      "æĸĩåħ¬": 4099,
      "çķ´": 4100,
      "èĤ©": 4101,
      "ä¸ºåĲį": 4102,
      "ä¸Ńæľī": 4103,
      "åŃ£é¾Ļ": 4104,
      "ç¨įè¿ģ": 4105,
      "æĲº": 4106,
      "ä¹¾": 4107,
      "ä¸ºä¹±": 4108,
      "æĺ¯åµĹ": 4109,
      "ä»¤åı²": 4110,
      "åİ»å¹´": 4111,
      "æ²ĻéĹ¨": 4112,
      "åŁİåĨħ": 4113,
      "å±±å·Ŀ": 4114,
      "ä¸ĸå®¶": 4115,
      "å®ŀå½ķ": 4116,
      "åºļæĪĮ": 4117,
      "æĹ¥æľīèļĢä¹ĭ": 4118,
      "è°®": 4119,
      "çķĶ": 4120,
      "æ´®": 4121,
      "çĿ¿": 4122,
      "å¼Ĥä¹ĭ": 4123,
      "èĨ³": 4124,
      "æīµ": 4125,
      "æľĿè¯·": 4126,
      "çĦ¶ä¹ĭ": 4127,
      "éĩįä¹ĭ": 4128,
      "è¯ŃæĽ°": 4129,
      "å¤§çł´": 4130,
      "æĺ¯æĹ¥": 4131,
      "æŀĲ": 4132,
      "æ±Łå·ŀ": 4133,
      "äºĮåįģåħ«": 4134,
      "å®ģæľĶ": 4135,
      "ç¬ĳæĽ°": 4136,
      "çİĭå¸Ī": 4137,
      "ç½ĳ": 4138,
      "è¯¸åĽ½": 4139,
      "ä¸įåı¯èĥľ": 4140,
      "äºİäºº": 4141,
      "åħ¶ä¸Ĭ": 4142,
      "éª¸": 4143,
      "æĸĩå®£": 4144,
      "çĵĺ": 4145,
      "èµıèµĲ": 4146,
      "èģ¼": 4147,
      "æ©": 4148,
      "åľ¨ä½į": 4149,
      "ä¿¡éĥ½": 4150,
      "è¡£æľį": 4151,
      "äºŃä¾¯": 4152,
      "åŃĲä¸º": 4153,
      "çİĭä¹ī": 4154,
      "å¾ģä¼Ĳ": 4155,
      "æ¶ª": 4156,
      "æıĨ": 4157,
      "åŁİçİĭ": 4158,
      "åİ¿ä¹Ł": 4159,
      "åĪĨä¸º": 4160,
      "éĹ®æĽ°": 4161,
      "å¿łèĩ£": 4162,
      "æķ¦çħĮ": 4163,
      "ä¹ĭåĳ½": 4164,
      "åıĪä¸º": 4165,
      "å§»": 4166,
      "èĬĴ": 4167,
      "æľįéĺ²æĽ°": 4168,
      "æ¼ł": 4169,
      "é¡·ä¹ĭ": 4170,
      "è¹Ī": 4171,
      "æĺ¼å¤ľ": 4172,
      "åĽ½ä¹Ł": 4173,
      "è§ģä¸Ĭåį·": 4174,
      "ç¾²": 4175,
      "æľªçŁ¥": 4176,
      "é«ĺå¸Ŀ": 4177,
      "æ¢ģçİĭ": 4178,
      "çĻ½é©¬": 4179,
      "æ°´ç»ıæ³¨": 4180,
      "å®Į": 4181,
      "èĭĹ": 4182,
      "èĴĻéĢĬ": 4183,
      "çĲħéĤªçİĭ": 4184,
      "ä¹ĭåĮĹ": 4185,
      "æĮº": 4186,
      "æ±Łéĥ½": 4187,
      "åºĶä¹ĭ": 4188,
      "å¸ħæīĢ": 4189,
      "ä¹¡ä¾¯": 4190,
      "åºĶåĬŃæĽ°": 4191,
      "è¯¡": 4192,
      "åº§": 4193,
      "åįģéĩĮ": 4194,
      "æĹłå¿Į": 4195,
      "é²į": 4196,
      "éªłéªĳ": 4197,
      "è«Į": 4198,
      "éļ½": 4199,
      "ä»İå¼Ł": 4200,
      "äºĶåį·": 4201,
      "å±±åįĹ": 4202,
      "çĸ«": 4203,
      "åıĶåŃĻ": 4204,
      "åģĩèĬĤ": 4205,
      "ç»ĩ": 4206,
      "ä¹ĭè¥¿": 4207,
      "ä¹ĭä¸ĸ": 4208,
      "ä»¥ç¤¼": 4209,
      "éĹ½": 4210,
      "éļħ": 4211,
      "æĥ¶": 4212,
      "èĤ¡": 4213,
      "ä¹ĭä¸İ": 4214,
      "èĢĢ": 4215,
      "è¡®": 4216,
      "ä¹ĥä½¿": 4217,
      "éķ¿åĲı": 4218,
      "è¡Įä¹Ł": 4219,
      "éģĤä»¥": 4220,
      "è¿ĺä»İ": 4221,
      "åĽłæŃ¤": 4222,
      "å¤®": 4223,
      "ä¹ĭæĥħ": 4224,
      "çİĭå®¤": 4225,
      "ä¿¯": 4226,
      "åħĥå¸ħ": 4227,
      "éĥ½å®ĺ": 4228,
      "æ¢°": 4229,
      "çº³ä¹ĭ": 4230,
      "å¥ķ": 4231,
      "æĸĩç«ł": 4232,
      "è¥¿æĸ¹": 4233,
      "éģĤä¸İ": 4234,
      "å¹¿æ±ī": 4235,
      "å§ĵä¹Ł": 4236,
      "ä¸Ńä¹¦èĪįäºº": 4237,
      "ä¸įäº¦": 4238,
      "åħ¶åĲĽ": 4239,
      "éĺħ": 4240,
      "æŃ¦éĥ½": 4241,
      "å¥ıäºĭ": 4242,
      "åıī": 4243,
      "äºİåĲİ": 4244,
      "çĻ¾éĩĮ": 4245,
      "æĿĢäºº": 4246,
      "æłĸ": 4247,
      "å¤©å¹³": 4248,
      "åı¸éļ¶": 4249,
      "çķ¤": 4250,
      "æĹ¢èĩ³": 4251,
      "èĮĥéĺ³": 4252,
      "æľĿæĶ¿": 4253,
      "æĢĴæĽ°": 4254,
      "åŃĶå®īåĽ½æĽ°": 4255,
      "éĥ¦": 4256,
      "å·ŀäºĭ": 4257,
      "æľ¬ä½ľ": 4258,
      "æľ¬çºª": 4259,
      "æļ¨": 4260,
      "èĩªä»Ĭ": 4261,
      "æĢł": 4262,
      "èĪİ": 4263,
      "èµ·å±ħ": 4264,
      "é¼ł": 4265,
      "ä¹ĭæ°ĳ": 4266,
      "åĨĻ": 4267,
      "å½Ĺ": 4268,
      "æµİåįĹ": 4269,
      "è¯£éĺĻ": 4270,
      "åį°ç»¶": 4271,
      "ä»¥æ±Ĥ": 4272,
      "å¸Ŀçºª": 4273,
      "ä»İå®¹": 4274,
      "éªĤ": 4275,
      "å¼łæİĸ": 4276,
      "å®¦èĢħ": 4277,
      "äºŁ": 4278,
      "å¿¤": 4279,
      "æŃ¦å°ĨåĨĽ": 4280,
      "åı¸å·ŀ": 4281,
      "éĿŀå¸¸": 4282,
      "æļ¹": 4283,
      "å¯»éĺ³": 4284,
      "å¯¿æĺ¥": 4285,
      "ä¹ĭç¾İ": 4286,
      "æ¬§": 4287,
      "è§ģäºİ": 4288,
      "åĪĻä¸į": 4289,
      "çľ¼": 4290,
      "å¾ħä¹ĭ": 4291,
      "ç¿ģ": 4292,
      "ä¸īåĵģ": 4293,
      "è¿ĽéĢĢ": 4294,
      "åĲ´éĥ¡": 4295,
      "é¢ĩæľī": 4296,
      "ä¸ºå®ī": 4297,
      "åħ¶å¿ĥ": 4298,
      "ä¼İ": 4299,
      "è¡Ĺ": 4300,
      "å°Ĩå¸ħ": 4301,
      "æ¸ī": 4302,
      "æŁĵ": 4303,
      "è§Ĥä¹ĭ": 4304,
      "è¿ľå°ĨåĨĽ": 4305,
      "å©Ĩ": 4306,
      "å¤§æ¢ģ": 4307,
      "åİ¿è¥¿": 4308,
      "æľĿéĩİ": 4309,
      "å·±åį¯": 4310,
      "æīĢäº²": 4311,
      "æłģ": 4312,
      "âĹĭãĢĲ": 4313,
      "å°Ĥ": 4314,
      "æŃ³": 4315,
      "èĢĮå¤į": 4316,
      "ä¸ĥæĹ¥": 4317,
      "æķ°åįģäºº": 4318,
      "éĩĳç´«åħīç¦Ħå¤§å¤«": 4319,
      "ä¸ºä¸ľ": 4320,
      "èĢħå¤ļ": 4321,
      "åĭĳ": 4322,
      "èł¡": 4323,
      "å·»": 4324,
      "çĽ¸ç»§": 4325,
      "æĲľ": 4326,
      "å±ħä¹ĭ": 4327,
      "èĶļ": 4328,
      "è·µéĺ¼": 4329,
      "éĤ¸": 4330,
      "åħĥåº·": 4331,
      "æı¡": 4332,
      "æ¼Ĩ": 4333,
      "è¿ĺä»İå®£": 4334,
      "ä¸īåĪĨ": 4335,
      "èĭŀ": 4336,
      "å¤±åħ¶": 4337,
      "è¿ľè¿ĳ": 4338,
      "èļķ": 4339,
      "éİ": 4340,
      "ä¹ŁåıĪ": 4341,
      "è®¹": 4342,
      "å¤ªå®°": 4343,
      "æĬĦ": 4344,
      "æĿ¥æľĿ": 4345,
      "åĽłä»¥": 4346,
      "åºľéķ¿åı²": 4347,
      "æĪĺåĽ½": 4348,
      "åĲīåĩ¶": 4349,
      "å±¬çļĨä»İ": 4350,
      "å®ĺåĨĽ": 4351,
      "åīįå°ĨåĨĽ": 4352,
      "ç§°ä¹ĭ": 4353,
      "ç¼®": 4354,
      "å¥´å©¢": 4355,
      "ä¸ºæĶ¿": 4356,
      "åŃĻæĿĥ": 4357,
      "ç¨ļ": 4358,
      "æ°¸åĪĿ": 4359,
      "çªľ": 4360,
      "æŀķ": 4361,
      "çĶ¨åħµ": 4362,
      "æ¢§": 4363,
      "éĴľ": 4364,
      "ä¸´å·Ŀ": 4365,
      "æľĽä¹ĭ": 4366,
      "å®ģæľĶå°ĨåĨĽ": 4367,
      "æĽ°æĪĳ": 4368,
      "åħ¥åħ³": 4369,
      "åįĥäºº": 4370,
      "éł´": 4371,
      "éĸ¤": 4372,
      "åħ¶åħĪ": 4373,
      "æīĢå¾Ĺ": 4374,
      "éģĵä¹Ł": 4375,
      "ä½ķä¸į": 4376,
      "ä¼Ĺå¿ĥ": 4377,
      "ç¼¯": 4378,
      "ä¸´æ·®": 4379,
      "çĶĺéľ²": 4380,
      "éĭ": 4381,
      "å¤¤": 4382,
      "ä¹ĭæ¬²": 4383,
      "äºĶäºº": 4384,
      "æ®¡": 4385,
      "æ´»": 4386,
      "å¢ŀéĤĳ": 4387,
      "èŁ": 4388,
      "äººå¿ĥ": 4389,
      "æīĢä¸į": 4390,
      "äºĭä¸į": 4391,
      "èµ·å®¶": 4392,
      "ð«ĸ": 4393,
      "åŁİåľ¨": 4394,
      "ç¾¸": 4395,
      "åī§": 4396,
      "é»Ļ": 4397,
      "åĳ¨ä¹ĭ": 4398,
      "å°ļä¹¦åı³ä»Ĩå°Ħ": 4399,
      "å¹¿å¹³": 4400,
      "æģ¬": 4401,
      "éĽģ": 4402,
      "åıĬè¯¸": 4403,
      "åİ¿åįĹ": 4404,
      "æĭĵ": 4405,
      "æĽ¹åħ¬": 4406,
      "èĽ®å¤·": 4407,
      "åŃ½": 4408,
      "æľīæŃ¤": 4409,
      "è´·": 4410,
      "ç»¾": 4411,
      "è¾İ": 4412,
      "æµ¸": 4413,
      "åĬłä»¥": 4414,
      "ä¹ĭå®¶": 4415,
      "äºİåīį": 4416,
      "æľīä¸ī": 4417,
      "æģµ": 4418,
      "åħ¥åŁİ": 4419,
      "å»ºåħĥ": 4420,
      "å®ļå·ŀ": 4421,
      "å¹¿å·ŀ": 4422,
      "æĻĭæŃ¦å¸Ŀ": 4423,
      "åĪĹä¼ł": 4424,
      "î»¥": 4425,
      "ä¸ĩéĩĮ": 4426,
      "æŀļ": 4427,
      "ç¤¼ä¹ĭ": 4428,
      "éĹ®ä¹ĭ": 4429,
      "åĽºå®Ī": 4430,
      "è°ĵä¹ĭæĽ°": 4431,
      "éĦ±": 4432,
      "ä¹ĭç¥¸": 4433,
      "å¤ªä¸Ńå¤§å¤«": 4434,
      "åŁİè¥¿": 4435,
      "ä¸ĸéļĨ": 4436,
      "å½ĵä¸ĸ": 4437,
      "ä¸įå¾Ĺå·²": 4438,
      "ä¹ĭå±¬çļĨä»İ": 4439,
      "åĲİæ±īä¹¦": 4440,
      "æ²ī": 4441,
      "è½¸": 4442,
      "çķª": 4443,
      "éĻ¢": 4444,
      "æ¼³": 4445,
      "ä»¥çĪ²": 4446,
      "æĽ¿": 4447,
      "ä»İæ°´": 4448,
      "çĻ¾ä¸ĩ": 4449,
      "æļĤ": 4450,
      "ä¹ĺèĪĨ": 4451,
      "ãĢĭï¼Į": 4452,
      "ä¸īåįģéĩĮ": 4453,
      "ä¹ĭèĬĤ": 4454,
      "èĻ¢": 4455,
      "æľĿæľį": 4456,
      "é»Ħéĩĳ": 4457,
      "ä¹Łæķħ": 4458,
      "éģ£ä¹ĭ": 4459,
      "å½Ĵä¹ĭ": 4460,
      "çĽĳåĨĽ": 4461,
      "åĨĽä¸»": 4462,
      "å±±éĺ³": 4463,
      "æ¬²ä»¤": 4464,
      "çĲ¬": 4465,
      "ç©¶": 4466,
      "é¢ĨåĨĽå°ĨåĨĽ": 4467,
      "é¢ī": 4468,
      "å·¦ä¼łæĽ°": 4469,
      "èİ«èĥ½": 4470,
      "æ½Ń": 4471,
      "å°ĶéĽħ": 4472,
      "èµĦæ²»éĢļéī´åį·": 4473,
      "ä¸īåĨĽ": 4474,
      "èĩªä¸º": 4475,
      "åĽ½äºº": 4476,
      "èĺ": 4477,
      "äºĨ": 4478,
      "èĩªå®Ī": 4479,
      "åİ»ä¹ĭ": 4480,
      "è£ĺ": 4481,
      "è´Ŀ": 4482,
      "äºĶéĩĮ": 4483,
      "æŃ¦éĻµ": 4484,
      "çļĨæĽ°": 4485,
      "åİ¿åľ°": 4486,
      "æĺİåħ¬": 4487,
      "æĺŃçİĭ": 4488,
      "îĺ¸": 4489,
      "ä¸ºçĽ¸": 4490,
      "æŃ¦æĪĲ": 4491,
      "èĭĽ": 4492,
      "ä¹ĥä»¤": 4493,
      "éĥĳä¼¯": 4494,
      "ç±»ç¿»": 4495,
      "åıļ": 4496,
      "åĬ£": 4497,
      "æ²Ĳ": 4498,
      "åľ¨äºİ": 4499,
      "äº¬éĤĳ": 4500,
      "éħĴæ³ī": 4501,
      "æķħåŁİåľ¨": 4502,
      "ä¸įéĢļ": 4503,
      "åħĥæĻ¯": 4504,
      "é»Ĵ": 4505,
      "æ¢ģå·ŀ": 4506,
      "è¶Ĭçİĭ": 4507,
      "ä¹ĭæīį": 4508,
      "è¡Įäºĭ": 4509,
      "çŁ¥ä¹Ł": 4510,
      "æ´ĭ": 4511,
      "è¿ĽåĨĽ": 4512,
      "ç¦ģä¸Ń": 4513,
      "èĵŁ": 4514,
      "ç»Ńæ±ī": 4515,
      "äºİå¤§": 4516,
      "èĢĮä¸ĭ": 4517,
      "äºĶåįģéĩĮ": 4518,
      "èįĲç¿»": 4519,
      "åĴ¨è®®åıĤåĨĽ": 4520,
      "ç©°": 4521,
      "åĥı": 4522,
      "åĴ¸éĺ³": 4523,
      "è¯¯ä¹Ł": 4524,
      "ä»¥è¥¿": 4525,
      "æĢĸ": 4526,
      "å¹¶ä¸º": 4527,
      "äºĮåįģå¹´": 4528,
      "éģ£åħ¶å°Ĩ": 4529,
      "åħ¶ä¸º": 4530,
      "éĺ³å¹³": 4531,
      "èĭ¥æľī": 4532,
      "å°ļä¹¦ä»Ĩå°Ħ": 4533,
      "èĻİè´²": 4534,
      "æģ¤ç¿»": 4535,
      "ä¹ĭè¾ŀ": 4536,
      "å¤©æ°´": 4537,
      "äºĶåĵģ": 4538,
      "åľ¨å¤ĸ": 4539,
      "çĦ¦": 4540,
      "æĭ¾": 4541,
      "çĶŁä¹ĭ": 4542,
      "èĭ¥æŃ¤": 4543,
      "å°ıä½Ļ": 4544,
      "åĢ¦": 4545,
      "éĵ¢": 4546,
      "éĵŃ": 4547,
      "ç¦Ħå±±": 4548,
      "è¯ĹæĽ°": 4549,
      "çıŃå¿Ĺ": 4550,
      "î¬": 4551,
      "å²ĳ": 4552,
      "æĽ¹æĵį": 4553,
      "è½»éĩį": 4554,
      "æĿľä½ĳæĽ°": 4555,
      "æŃ¦å¹³": 4556,
      "èĪĮ": 4557,
      "èĮ¹": 4558,
      "è´¥è¡¥": 4559,
      "åĸĦä¹ĭ": 4560,
      "çĽĬå·ŀåĪºåı²": 4561,
      "ä¹Įè·¯": 4562,
      "åįģä½Ļä¸ĩ": 4563,
      "ä¸įå°½": 4564,
      "è¯Ħ": 4565,
      "èĢĮä»¥": 4566,
      "çĶŀ": 4567,
      "è¨Ģä¹Ł": 4568,
      "æİĴ": 4569,
      "æ²Ľåħ¬": 4570,
      "ç¸ģ": 4571,
      "æĽ½": 4572,
      "ä¸įå½ĵ": 4573,
      "ä¸įé£Ł": 4574,
      "å··": 4575,
      "äºİç§¦": 4576,
      "åħ¶åĲį": 4577,
      "æ±ľ": 4578,
      "èĩ³å°Ĭ": 4579,
      "åĽ½æľī": 4580,
      "èĥĨ": 4581,
      "åĪĺåĲĳ": 4582,
      "åį«å°ī": 4583,
      "ä¹ĭä½¿": 4584,
      "ä¸ºè¥¿": 4585,
      "éªĬ": 4586,
      "æŃ£åı²": 4587,
      "å®Ĺä¹ĭ": 4588,
      "è¯Ĺäºĳ": 4589,
      "é¬Ń": 4590,
      "åħµäºİ": 4591,
      "å»ĵ": 4592,
      "åİ¿ä¸ľ": 4593,
      "åħ¥ä¸º": 4594,
      "ä»ģä¹ī": 4595,
      "è¿Īç¿»": 4596,
      "è´»": 4597,
      "ä¸ŃåİŁ": 4598,
      "èģĬ": 4599,
      "æ²³ä¸Ń": 4600,
      "å¥³ä¹Ł": 4601,
      "è¡£åĨł": 4602,
      "åĽ½åŃĲåįļå£«": 4603,
      "ä¹ĭåįĹ": 4604,
      "ä¹ĭéļ¾": 4605,
      "åŃĽ": 4606,
      "è¿©": 4607,
      "è°Į": 4608,
      "å¥Ĥ": 4609,
      "æĺ¾ç¥ĸ": 4610,
      "èĢĮèĩ³": 4611,
      "ç»®": 4612,
      "é¢ł": 4613,
      "å½ĵä»¥": 4614,
      "å¸ħå¸Ī": 4615,
      "éĦ¯": 4616,
      "î½": 4617,
      "åĪ¶åº¦": 4618,
      "åĩĮ": 4619,
      "å²ģæĺŁ": 4620,
      "ä¹ŁæŃ£ä¹ī": 4621,
      "å¾Ĥ": 4622,
      "åħ¶å¼Ł": 4623,
      "ä¸ĢæľĿ": 4624,
      "éĺ²ä¹ĭ": 4625,
      "è¯·ä»¥": 4626,
      "ç»Ļäºĭé»ĦéĹ¨ä¾įéĥİ": 4627,
      "æĿŀ": 4628,
      "å¾ģè¥¿": 4629,
      "ç®Ń": 4630,
      "æĤīèįĲç¿»": 4631,
      "ä»ħ": 4632,
      "è¯©": 4633,
      "åı²èĩ£æĽ°": 4634,
      "åıĪéŁ³": 4635,
      "éĿŀåħ¶": 4636,
      "çħ§ç¿»": 4637,
      "èĢ¶": 4638,
      "æĢ¿": 4639,
      "éĤī": 4640,
      "è§ģèĢĮ": 4641,
      "å²Ĥæľī": 4642,
      "é¹°": 4643,
      "èµŀæĽ°": 4644,
      "ä¸¸": 4645,
      "åİ¿åĮĹ": 4646,
      "åĲįä¸º": 4647,
      "å®¶äºº": 4648,
      "åŃĿç»ı": 4649,
      "è·ĥ": 4650,
      "éĵİ": 4651,
      "æ»Ķ": 4652,
      "èĩĤ": 4653,
      "è§¦": 4654,
      "æ¯İ": 4655,
      "åħŃåĨĽ": 4656,
      "éŃıçİĭ": 4657,
      "æģ¶ä¹Įè·¯": 4658,
      "é»ĦéĹ¨éĥİ": 4659,
      "ä¹ĭè°ĭ": 4660,
      "è°´": 4661,
      "èµĪ": 4662,
      "æ²¦": 4663,
      "ä¹īç¿»": 4664,
      "æľĿèĩ£": 4665,
      "ç¬¬äºĮ": 4666,
      "ä¹ĭä¸ľ": 4667,
      "æĸĻ": 4668,
      "åİĺ": 4669,
      "åĩºåħµ": 4670,
      "è±ķ": 4671,
      "å°ļä¹¦éĥİ": 4672,
      "é»ĦéĴŁ": 4673,
      "æĸ°å®ī": 4674,
      "è³Ķå®¢": 4675,
      "åįĴåŃĲæģ¤ç¿»": 4676,
      "ä»¥åįĹ": 4677,
      "å½Ŀ": 4678,
      "å®ĺçĪµ": 4679,
      "ç¯¡": 4680,
      "ç¡ķ": 4681,
      "ä»¥äºĭ": 4682,
      "å¸»": 4683,
      "éĺ³åŁİ": 4684,
      "é¢ĺ": 4685,
      "æİĺ": 4686,
      "åĬłæķ£éªĳå¸¸ä¾į": 4687,
      "ä»¥ä¸į": 4688,
      "äºİå¤©ä¸ĭ": 4689,
      "åħ¶å¿Ĺ": 4690,
      "ä¸ĢæľĪ": 4691,
      "é©·": 4692,
      "ç®Ĺ": 4693,
      "æŃ£åı²ç±»": 4694,
      "é´": 4695,
      "åĨ¶": 4696,
      "äºĮéĥ¡": 4697,
      "ä¸ĭè¯ı": 4698,
      "äºĶç»ı": 4699,
      "éķ¿åŁİ": 4700,
      "å¿ħä¸į": 4701,
      "çĿ¢": 4702,
      "ä¿¡ä¹ĭ": 4703,
      "éĻ¤ä¹ĭ": 4704,
      "çĵľ": 4705,
      "è¤Ĳ": 4706,
      "æ²³åįĹå°¹": 4707,
      "é¬¼ç¥ŀ": 4708,
      "éĻĭ": 4709,
      "å·ŀæ²»": 4710,
      "äºĶè¡Į": 4711,
      "çĶļåİļ": 4712,
      "è©¹äºĭ": 4713,
      "çİĭæ°ı": 4714,
      "éĢŀ": 4715,
      "ä¸Ĭæľī": 4716,
      "è°ĵåħ¶": 4717,
      "ä¹Ŀæ±Ł": 4718,
      "äº¬åı£": 4719,
      "çı½": 4720,
      "äºĶçĻ¾æĪ·": 4721,
      "å°ĳè¯Ĺæ²¼": 4722,
      "èĢĮä¸įèĥ½": 4723,
      "å¤ªæŃ¦": 4724,
      "æľĿå£«": 4725,
      "çĶŁäºİ": 4726,
      "æľįä¹ĭ": 4727,
      "å¥īæľĿè¯·": 4728,
      "å¼Ħ": 4729,
      "éĻī": 4730,
      "æ¸ļ": 4731,
      "å®ĹæĹı": 4732,
      "æ°¸æĺİ": 4733,
      "ä¹ĭåĬ¿": 4734,
      "åĽĬ": 4735,
      "ä¾¨": 4736,
      "åĽ½éĻ¤": 4737,
      "æŃ¤ä¹ĥ": 4738,
      "ç§¦å·ŀåĪºåı²": 4739,
      "çĥĽ": 4740,
      "éģ£ä½¿èĢħ": 4741,
      "ð«ĸ®": 4742,
      "ä¹ĭçŃī": 4743,
      "æĺĬ": 4744,
      "æĸ§": 4745,
      "äºĮæĹ¥": 4746,
      "æ¸İ": 4747,
      "åı³å°ĨåĨĽ": 4748,
      "çľŀ": 4749,
      "è¾½è¥¿": 4750,
      "è¯º": 4751,
      "åħ¥å®«": 4752,
      "åħĪæĤīèįĲç¿»": 4753,
      "åĨħä¾¯": 4754,
      "æ±Łä¸ľ": 4755,
      "è¢«çļ®": 4756,
      "é¥®é£Ł": 4757,
      "éª¨èĤī": 4758,
      "äº¶": 4759,
      "åĲŀ": 4760,
      "æ±īå®ĺ": 4761,
      "èĵĿ": 4762,
      "å®¦å®ĺ": 4763,
      "å¸ħæīĢç±»ç¿»": 4764,
      "ä¹ĭé£İ": 4765,
      "ä»¥çĽ¸": 4766,
      "ä¸ºå¹³": 4767,
      "äºİä»Ĭ": 4768,
      "å¥ł": 4769,
      "éªĪ": 4770,
      "éģĤä¸º": 4771,
      "æĸ¹çī©": 4772,
      "æĪĸæľī": 4773,
      "èĸª": 4774,
      "ä»²å°¼": 4775,
      "çģµå¤ªåĲİ": 4776,
      "è½»éªĳ": 4777,
      "èģļä¼Ĺ": 4778,
      "åĨ¥": 4779,
      "äºİéŃı": 4780,
      "åŁĭ": 4781,
      "èµĲæŃ»": 4782,
      "çĮ®å¸Ŀ": 4783,
      "ä¸įå®ī": 4784,
      "æķ°äºº": 4785,
      "çŁ³åĭĴ": 4786,
      "éĢļçĽ´æķ£éªĳå¸¸ä¾į": 4787,
      "åĨ¤": 4788,
      "æĹłéģĵ": 4789,
      "æŃ¦å¨ģ": 4790,
      "è¯¸åĲĽ": 4791,
      "å»ºå¾·": 4792,
      "è´¥ç»©": 4793,
      "çª¥": 4794,
      "åłĳ": 4795,
      "åħĭä¹ĭ": 4796,
      "å®Ŀå¤¤": 4797,
      "éŁ¦æĺŃæĽ°": 4798,
      "ä¸ºä¸į": 4799,
      "èĩ»": 4800,
      "åħ¶åĬŁ": 4801,
      "èĢħä½ķ": 4802,
      "æīĢçĶŁ": 4803,
      "æŀ¯": 4804,
      "éļ¾ä¹ĥ": 4805,
      "æĽ¹åıĤåĨĽ": 4806,
      "å¸ĥè¡£": 4807,
      "ç§ĺä¹¦çĽĳ": 4808,
      "æµªç¿»": 4809,
      "äºĶä»£å¿Ĺ": 4810,
      "ä»¥ä¸ľ": 4811,
      "ä¸įä¸ĭ": 4812,
      "åħ¶èº«": 4813,
      "æīĢå®³": 4814,
      "èĩªè°ĵ": 4815,
      "æģ½": 4816,
      "ä»İèĢħ": 4817,
      "éªĨ": 4818,
      "ä¸ĥåĸ»": 4819,
      "å¤ıäºĶæľĪ": 4820,
      "èĢĮåħ¥": 4821,
      "åĩ¯": 4822,
      "å¤©çĽĳ": 4823,
      "éĥ¡åºŁ": 4824,
      "ä¸´æľĿ": 4825,
      "æĸ½è¡Į": 4826,
      "æģ¶ä¹Įè·¯ç¿»": 4827,
      "åħ¶ä¸ĭ": 4828,
      "éĻª": 4829,
      "æĹłäºĭ": 4830,
      "éĿ³": 4831,
      "éŃıæĶ¶": 4832,
      "æĴĥ": 4833,
      "ãĢıãĢĤ": 4834,
      "ä»İæľ¨": 4835,
      "ä»¥æĺİ": 4836,
      "å½ĵä¸º": 4837,
      "è½©è¾ķ": 4838,
      "ä¹³": 4839,
      "æľīè¯ı": 4840,
      "çĶµ": 4841,
      "éĺı": 4842,
      "ä¸İçİĭ": 4843,
      "éģ£å°Ĩ": 4844,
      "æĹ¦ç¿»": 4845,
      "è¿ĺä»İå®£ç¿»åıĪ": 4846,
      "ä¹ĭåĲĽ": 4847,
      "ä¸įæĤ¦": 4848,
      "æĹłåĬŁ": 4849,
      "ä»İèī¸": 4850,
      "æľĿå¤ķ": 4851,
      "æŃ¥åħµ": 4852,
      "æ¾¹": 4853,
      "å£®å£«": 4854,
      "è´¥è¡¥è¿Īç¿»": 4855,
      "ä¹ĭåºĶ": 4856,
      "å¾§": 4857,
      "æŁĦ": 4858,
      "ä¹Įæ¡ĵ": 4859,
      "æľ´": 4860,
      "æīĢè¨Ģ": 4861,
      "åıĹåħ¶": 4862,
      "éĻĩåı³": 4863,
      "è¢«çļ®ä¹īç¿»": 4864,
      "ä¸Ńå¸¸ä¾į": 4865,
      "ä¸ĭçĭ±": 4866,
      "å®īå¹³": 4867,
      "åĲĦä¸Ģäºº": 4868,
      "ä¸ºå¤§åı¸é©¬": 4869,
      "ä¸ºéķĩ": 4870,
      "ä¸įå·²": 4871,
      "å¤ªæŀģ": 4872,
      "å¯ĵ": 4873,
      "æ¬¤": 4874,
      "çĦ¶èĢĮ": 4875,
      "å¾¡ä¹ĭ": 4876,
      "æµİåĮĹ": 4877,
      "çĴł": 4878,
      "ä¸ĬæŁ±åĽ½": 4879,
      "éķ¿èĢħ": 4880,
      "å®ĹæŃ£": 4881,
      "éħ£": 4882,
      "è£ħ": 4883,
      "ä¸įèĥ½èĩª": 4884,
      "ç»Īäºİ": 4885,
      "ç¬¬ä¸ī": 4886,
      "ä¹ĭè¡Į": 4887,
      "å½±": 4888,
      "åĽĽéĿ¢": 4889,
      "è¡ĮèĲ¥": 4890,
      "ç§ĭåħ«æľĪ": 4891,
      "è¯ģç¿»": 4892,
      "çįł": 4893,
      "ä¸įåıĸ": 4894,
      "ä¸īå·ŀ": 4895,
      "èĩªæľī": 4896,
      "ç¼©": 4897,
      "çĳ±": 4898,
      "æľīäºĶ": 4899,
      "åĨĽèĩ³": 4900,
      "æķħç¿»": 4901,
      "å¸¸ä»¥": 4902,
      "éħ¬": 4903,
      "åĪĺè£ķ": 4904,
      "åī¯ä½¿": 4905,
      "å¬ĸ": 4906,
      "éĺª": 4907,
      "éĽ¾": 4908,
      "å®īå¾Ĺ": 4909,
      "åĮĹæĸ¹": 4910,
      "æ·Ħ": 4911,
      "åį³æĹ¥": 4912,
      "éĥ¨ä¾įéĥİ": 4913,
      "å¾ģä¸º": 4914,
      "å¤§èµ¦å¤©ä¸ĭ": 4915,
      "æŃĻ": 4916,
      "åŃĲä»ª": 4917,
      "èĢĮéĢĢ": 4918,
      "å¤§ç»Ł": 4919,
      "åĲİä¸ĸ": 4920,
      "ä½¿äºİ": 4921,
      "èĩ³ä»Ĭ": 4922,
      "èĭĭç¿»": 4923,
      "åĩºå¥Ķ": 4924,
      "æĿ¥èģĺ": 4925,
      "éĥ¤": 4926,
      "éŁµ": 4927,
      "æ¢ģæľī": 4928,
      "é¼»": 4929,
      "ä¸įæĪĲ": 4930,
      "å°Ĩä»¥": 4931,
      "éĤĥ": 4932,
      "è¡Įä¸ĭ": 4933,
      "çļĨåľ¨": 4934,
      "é¦Ī": 4935,
      "éĩĳåĲ¾": 4936,
      "é¥Ń": 4937,
      "æĸ°åŁİ": 4938,
      "æĿ¨ç´ł": 4939,
      "ä¸ºä¾¯": 4940,
      "ç«ĭåĬŁ": 4941,
      "çĶļæľī": 4942,
      "èµ¦å¤©ä¸ĭ": 4943,
      "ä¸ĬçĸıæĽ°": 4944,
      "å¤©ä¿Ŀ": 4945,
      "æĭ±": 4946,
      "åĮĹä¼Ĳ": 4947,
      "æĤĮ": 4948,
      "è§Ĩä¹ĭ": 4949,
      "å°ĳè¯Ĺæ²¼ç¿»": 4950,
      "ä¹ĭå¸Ī": 4951,
      "åħ¶ä¸Ģ": 4952,
      "åħ¶æĸĩ": 4953,
      "åħ¬ç¾Ĭ": 4954,
      "å¹³åħĥå¹´": 4955,
      "é¢Ī": 4956,
      "éŃģ": 4957,
      "éĻįèĢħ": 4958,
      "æģ¯äº®ç¿»": 4959,
      "èĿĹ": 4960,
      "åĳľ": 4961,
      "ä¸Ĭçļĩ": 4962,
      "ä¸Ĭè°·": 4963,
      "æ¨¡": 4964,
      "çĶĺæ³ī": 4965,
      "æĪª": 4966,
      "åĬŀ": 4967,
      "æĹłç½ª": 4968,
      "å®īä¹ĭ": 4969,
      "å»Ĩ": 4970,
      "åĪĿä¸º": 4971,
      "äºĮåįģéĩĮ": 4972,
      "çĭ¬åŃ¤": 4973,
      "æľ½": 4974,
      "ä»¥åĨĽ": 4975,
      "çİĭéģĵ": 4976,
      "äºĮåİ¿": 4977,
      "åĲİé½Ĳ": 4978,
      "æ²Ĥ": 4979,
      "æ¢ģå·ŀåĪºåı²": 4980,
      "è·ª": 4981,
      "å²Ĥå¾Ĺ": 4982,
      "å®¿åį«": 4983,
      "ä¸įè¶³ä»¥": 4984,
      "çĽŁäºİ": 4985,
      "è©©": 4986,
      "äººå¤ļ": 4987,
      "è®¯": 4988,
      "åħ¬ç§ģ": 4989,
      "å¤©éģĵ": 4990,
      "ä¸ľäºķ": 4991,
      "çĬĩ": 4992,
      "éĩįçĽ´": 4993,
      "è´¥ä¹ĭ": 4994,
      "çīĴ": 4995,
      "çĸİ": 4996,
      "åĭĴåħµ": 4997,
      "äºĭè§ģä¸Ĭåį·": 4998,
      "æľīäºĭ": 4999,
      "å¯¤": 5000,
      "æīĢåĩº": 5001,
      "å¦Ĥä½ķ": 5002,
      "é¡¼": 5003,
      "è®®éĥİ": 5004,
      "è¾ŀæĽ°": 5005,
      "å²ģä½Ļ": 5006,
      "æľ±åħ¨å¿ł": 5007,
      "åĭ¿ç¿»": 5008,
      "ç§Ģæīį": 5009,
      "åºĦå¸Ŀ": 5010,
      "è¸µ": 5011,
      "çİĭèĤĥ": 5012,
      "åľŃ": 5013,
      "ç¦ĺ": 5014,
      "æķ°æľĪ": 5015,
      "é»¯": 5016,
      "åİ»èģĮ": 5017,
      "éķĩå°Ĩ": 5018,
      "å½ķäºĭ": 5019,
      "éļ¾ä¹ĥæĹ¦ç¿»": 5020,
      "æīĪ": 5021,
      "èĢĮæŃ¢": 5022,
      "æľīæīį": 5023,
      "æĿ²": 5024,
      "å·ŀä¸º": 5025,
      "æķħä¸į": 5026,
      "å·¦åħīç¦Ħå¤§å¤«": 5027,
      "éĿŀæīĢ": 5028,
      "æįĲ": 5029,
      "å¯¡äºº": 5030,
      "é§": 5031,
      "ä¹ĭä¹Ĳ": 5032,
      "äºİéģĵ": 5033,
      "æģļ": 5034,
      "çļĨä¸į": 5035,
      "ä½ķæīĢ": 5036,
      "èĬ±": 5037,
      "éĻµå¤ªå®Ī": 5038,
      "è¥Ħåħ¬": 5039,
      "æ¹ĺä¸ľ": 5040,
      "èµ«è¿ŀ": 5041,
      "ä»¥ä¸Ģ": 5042,
      "ãĢĭãĢĤ": 5043,
      "åĮĸåıĬ": 5044,
      "äºİä¸ĭ": 5045,
      "çĽ¸æģ¯äº®ç¿»": 5046,
      "åı¯ä¸į": 5047,
      "éķ¿åħ¬ä¸»": 5048,
      "ä¸»äºº": 5049,
      "éŃĤ": 5050,
      "åĪ«å°Ĩ": 5051,
      "ä¹ħçŁ£": 5052,
      "å®ķ": 5053,
      "èĢ½": 5054,
      "å°Ĭåı·": 5055,
      "è°£": 5056,
      "åįģä¹Ŀå¹´": 5057,
      "å¤ªå¦ĥ": 5058,
      "å£Ĭ": 5059,
      "ä¼ĹåĨĽ": 5060,
      "éĻįæĪ¸": 5061,
      "ä¹ĭæľ¬": 5062,
      "æĹ£": 5063,
      "å¤§è¡Į": 5064,
      "å¯ĥ": 5065,
      "å¤©åħī": 5066,
      "åĽĽä¸ĩ": 5067,
      "æĥ©": 5068,
      "èĥ½ä¸º": 5069,
      "äº²æĪļ": 5070,
      "èµĲä»¥": 5071,
      "å¥³åŃĲ": 5072,
      "ç»Īä¸į": 5073,
      "çĥŃ": 5074,
      "æĬļåĨĽ": 5075,
      "èıľ": 5076,
      "è¾İéĩį": 5077,
      "ä»¥çĸ¾": 5078,
      "éģ®": 5079,
      "å¤§åĲĮ": 5080,
      "å£¶": 5081,
      "åŁİåĮĹ": 5082,
      "éªŀ": 5083,
      "è¡Įå¯Ĩ": 5084,
      "è§ģäºĮçĻ¾": 5085,
      "é¢Ľ": 5086,
      "æ±Łæ·®": 5087,
      "å¥īè¯ı": 5088,
      "æ¯įå¿§": 5089,
      "å¤©åŃĲä¹ĭ": 5090,
      "ä¹ĭå§ĭ": 5091,
      "éĥĵ": 5092,
      "å¤ªåħĥ": 5093,
      "åıĪä¸İ": 5094,
      "åĿ¤": 5095,
      "ç¤¼è®°": 5096,
      "æłĩ": 5097,
      "åĤī": 5098,
      "æĽ¼": 5099,
      "äºİåħ¶": 5100,
      "å¤§é£İ": 5101,
      "å¾Ĺä¸Ģ": 5102,
      "åī½": 5103,
      "é»į": 5104,
      "æĻıæĽ°": 5105,
      "ä»·": 5106,
      "èĢĮè¿Ľ": 5107,
      "æľīäºº": 5108,
      "ç¾ģ": 5109,
      "éħĮ": 5110,
      "åĽłèĢĮ": 5111,
      "åŃĿæĺĮ": 5112,
      "æ¢ģç½®": 5113,
      "åĲ´ä¸»": 5114,
      "ä¹ĺèĥľ": 5115,
      "èĭ»åĿļ": 5116,
      "å¯Ĳ": 5117,
      "æĻķ": 5118,
      "æ¬µ": 5119,
      "è¶¾": 5120,
      "åĶ±": 5121,
      "å¾ģè®¨": 5122,
      "æĶ»åŁİ": 5123,
      "ä¹ĭä¸Ģ": 5124,
      "å°ĨçĽ¸": 5125,
      "åİĲ": 5126,
      "ç¾ŀ": 5127,
      "ä»ģå¯¿": 5128,
      "è§Ĥå¯Ł": 5129,
      "æī§æ³ķ": 5130,
      "æĺµ": 5131,
      "çİĭåĲİ": 5132,
      "å¤§ä¸ŃæŃ£": 5133,
      "åİ¿çķĮ": 5134,
      "å®ĭåħ¬": 5135,
      "åĤķ": 5136,
      "æ·±åħ¥": 5137,
      "ä¹ĺä¹ĭ": 5138,
      "çĪ±ä¹ĭ": 5139,
      "éļĭæĸĩå¸Ŀ": 5140,
      "ä¹Łåħ¶": 5141,
      "éĥ½éĺ²": 5142,
      "æĻĭäºº": 5143,
      "äº¬æĪ¿": 5144,
      "æ£Ģæł¡": 5145,
      "éģĳ": 5146,
      "ä¸Ńæķ£": 5147,
      "ä¸Ńåº¶åŃĲ": 5148,
      "çĻ¾ä½Ļäºº": 5149,
      "æĦī": 5150,
      "ç§°çĸ¾": 5151,
      "è¯·éĻį": 5152,
      "æ¡ĵçİĦ": 5153,
      "éĻįæĪ¸æ±Łç¿»": 5154,
      "æĸ«": 5155,
      "å°Ĩèĩ³": 5156,
      "å¿»": 5157,
      "ä¸Ĭä¹ĭ": 5158,
      "æĺ¯éĿŀ": 5159,
      "çº¸": 5160,
      "æŃ»ä¹ĭ": 5161,
      "åı¤äºº": 5162,
      "ç§°åħ¶": 5163,
      "ç»ıçķ¥": 5164,
      "å¼ķä¸º": 5165,
      "èĳ£åįĵ": 5166,
      "ä¹ĭè´¥": 5167,
      "æľīä¹ĭ": 5168,
      "å¤įç½®": 5169,
      "äº¦ç¿»": 5170,
      "å½ĵæľī": 5171,
      "å°ģç¦ħ": 5172,
      "é¦¥": 5173,
      "æī¿å¤©": 5174,
      "èĵĦ": 5175,
      "é©¹": 5176,
      "è¯¸éģĵ": 5177,
      "æł¾": 5178,
      "äºĮåįģä¹Ŀ": 5179,
      "æ¬¡äºİ": 5180,
      "å¡ĺ": 5181,
      "éªģéªĳå°ĨåĨĽ": 5182,
      "ä¹ĭåĪ©": 5183,
      "åĮĹå¹³": 5184,
      "æ¬²ä½¿": 5185,
      "åı¤èĭĭç¿»": 5186,
      "åĴĮäº²": 5187,
      "å¤§åĸľ": 5188,
      "ä¹īéĺ³": 5189,
      "å¥³ä¸º": 5190,
      "å§ĵåĲį": 5191,
      "èĨı": 5192,
      "ä»ĩæ±ł": 5193,
      "æľŃ": 5194,
      "ä¸įåħ¥": 5195,
      "è¯¥": 5196,
      "åįĹå±±": 5197,
      "æķħèĥ½": 5198,
      "è¿Ľå°ģ": 5199,
      "æĶ¹åĲį": 5200,
      "åĬĽæĪĺ": 5201,
      "éĥŃçĴŀ": 5202,
      "ç±»ä¹Ł": 5203,
      "éĺ¿éĤ£": 5204,
      "äººèĩ£": 5205,
      "çĶ¥": 5206,
      "ä¸ľèĩ³": 5207,
      "åħ¥æ´Ľ": 5208,
      "å¥ıä¹ĭ": 5209,
      "æļł": 5210,
      "ä¹ĮåŃĻ": 5211,
      "åĨįæĭľ": 5212,
      "è«¡æĽ°": 5213,
      "å°Ĵæľ±èį£": 5214,
      "ä¹ĭå¤Ħ": 5215,
      "ä¹ĭåıĺ": 5216,
      "åŃľ": 5217,
      "åħµèµ·": 5218,
      "ä¹ĥè¿ĺ": 5219,
      "ä»Ĭå¹´": 5220,
      "æ¬²ä¸İ": 5221,
      "æĸ©åħ¶": 5222,
      "ä¸ĥåĸ»ç¿»": 5223,
      "ä¸įæĭľ": 5224,
      "éĥĥ": 5225,
      "å¤§ä¹±": 5226,
      "è´¿": 5227,
      "æ±¶": 5228,
      "æŃ¤åĪĻ": 5229,
      "è¥¿å¹³": 5230,
      "å°ĳåŃĲ": 5231,
      "éĢģä¹ĭ": 5232,
      "è³Ľ": 5233,
      "ç»İ": 5234,
      "æīĢçŁ¥": 5235,
      "è¿ĽæĶ»": 5236,
      "å®«äºº": 5237,
      "ä»£çİĭ": 5238,
      "è®¨å¹³ä¹ĭ": 5239,
      "å»¶å¹´": 5240,
      "çºªå¹´": 5241,
      "åħ¶ä¹ī": 5242,
      "åħ«å°º": 5243,
      "åĪĺå¤ĩ": 5244,
      "è¢ģç»į": 5245,
      "åħŃçĻ¾çŁ³": 5246,
      "çļİ": 5247,
      "ç«º": 5248,
      "èĩªå°Ĩ": 5249,
      "äºĶåİŁ": 5250,
      "åİ¿ä¸ľåĮĹ": 5251,
      "ç¦§": 5252,
      "ç¾Ļ": 5253,
      "çĭŃ": 5254,
      "åįĴå®ĺ": 5255,
      "æķ¬åĪĻ": 5256,
      "ä¹ĭä¹ĥ": 5257,
      "æĺī": 5258,
      "æĿĳ": 5259,
      "å¿Ŀ": 5260,
      "äºĮæĽ°": 5261,
      "äºĭèĢħ": 5262,
      "æĶĺ": 5263,
      "åŁİä¸ľ": 5264,
      "è¡Įèĩ³": 5265,
      "èģ´": 5266,
      "ä¹Ŀå·ŀ": 5267,
      "ä»¥ä¸ºçĦ¶": 5268,
      "éĽĨè§£éĥĳ": 5269,
      "å¯¿éĺ³": 5270,
      "å³¡": 5271,
      "ä¸¹éĺ³å°¹": 5272,
      "äº³": 5273,
      "åĪį": 5274,
      "æµĻ": 5275,
      "çĽ¸å¦Ĥ": 5276,
      "åĮĹéĿ¢": 5277,
      "æĤł": 5278,
      "é¦Ģ": 5279,
      "ç»ıåı²": 5280,
      "éŁ©ä¿¡": 5281,
      "çĨĪ": 5282,
      "æĳĩ": 5283,
      "éİŃ": 5284,
      "ä¹ĭå£°": 5285,
      "ä¸įå¹³": 5286,
      "è¿Ń": 5287,
      "æŃ¦å®ī": 5288,
      "éĥ½æĮĩæĮ¥ä½¿": 5289,
      "æ²Īçº¦": 5290,
      "å¢ĥåĨħ": 5291,
      "èĳĹä½ľéĥİ": 5292,
      "äºİæľĿ": 5293,
      "å¤§åĬŁ": 5294,
      "è§ģä¸ĢçĻ¾": 5295,
      "æĻĭå·ŀ": 5296,
      "çĭ¡": 5297,
      "ç§¦ä¹ĭ": 5298,
      "çĬ¹æľī": 5299,
      "è§Ĥåħ¶": 5300,
      "åį«ä¾¯": 5301,
      "çĳĢ": 5302,
      "ä¸Īå¤«": 5303,
      "äº¬åħĨå°¹": 5304,
      "èĢĮèĩª": 5305,
      "æľĪä½Ļ": 5306,
      "åİ¿è¥¿åĮĹ": 5307,
      "èĻ½ä¸į": 5308,
      "é¸ł": 5309,
      "çĶ·åŃĲ": 5310,
      "æįŁçĽĬ": 5311,
      "éĭŃ": 5312,
      "åħ¶æľ¬": 5313,
      "éĻķ": 5314,
      "å¤§é¸¿èĥª": 5315,
      "éĢĶ": 5316,
      "åľ°ä¹Ł": 5317,
      "èĴ¸": 5318,
      "æ¡ĵæ¸©": 5319,
      "çĵł": 5320,
      "çŃ¹": 5321,
      "ä½ķå¾Ĺ": 5322,
      "å±ŀæĸĩ": 5323,
      "å¾ģè¥¿å°ĨåĨĽ": 5324,
      "åĢ¨": 5325,
      "åĿĲäºĭ": 5326,
      "æĶ¶åħ¶": 5327,
      "æĹĴ": 5328,
      "çĽİ": 5329,
      "ä»İäºº": 5330,
      "ä¹Ŀåį¿": 5331,
      "å°ģä¸º": 5332,
      "éŀħ": 5333,
      "ãĢĢãĢĢãĢĢ": 5334,
      "î¬¼": 5335,
      "é´Ī": 5336,
      "ä¸ºè´¼": 5337,
      "åħ¶å¦»": 5338,
      "ä¸ĩå¹´": 5339,
      "äºĮåįģä¸ĥ": 5340,
      "å¼ĺåĨľ": 5341,
      "ä¸įå®¹": 5342,
      "éĢĭ": 5343,
      "ä¸īå°º": 5344,
      "åıĬèĩ³": 5345,
      "åı¯ä¹Ł": 5346,
      "éģĵæµİ": 5347,
      "åĳ½ä¹ĭ": 5348,
      "çĪ¶åħĦ": 5349,
      "åŃĿæŃ¦å¸Ŀ": 5350,
      "è®®å¤§å¤«": 5351,
      "æ°¸åħĥ": 5352,
      "å°ĳè¯Ĺçħ§ç¿»": 5353,
      "ï¼ĮãĢĬ": 5354,
      "å¤§ä½¿": 5355,
      "è¡Ĩ": 5356,
      "æ³Į": 5357,
      "åħµä»¥": 5358,
      "å¹¶ä»¥": 5359,
      "ç¼ī": 5360,
      "æ¥ļäºº": 5361,
      "çŃĶæĽ°": 5362,
      "æ¸ħæ²³çİĭ": 5363,
      "çİĭä»¥": 5364,
      "å¹´å°ĳ": 5365,
      "è§Ĭ": 5366,
      "éĤ½": 5367,
      "æľªä¹ĭ": 5368,
      "ä¾¯åĽ½": 5369,
      "èķ´": 5370,
      "æ§Ĳ": 5371,
      "äººäºĭ": 5372,
      "ä¸Ńä½¿": 5373,
      "ç¥ľ": 5374,
      "ä¸ĩæľº": 5375,
      "ä¹Ŀåįĥ": 5376,
      "å¹¶å·ŀåĪºåı²": 5377,
      "çĮ¾": 5378,
      "æ£±": 5379,
      "æĬļåĨĽå°ĨåĨĽ": 5380,
      "éº¾ä¸ĭ": 5381,
      "ä¹ĭä¸§": 5382,
      "åįģäºº": 5383,
      "ç¥Ńç¥Ģ": 5384,
      "åıİ": 5385,
      "æķİ": 5386,
      "å¤§åı¸åĨľ": 5387,
      "æĹ¶ä¹Ł": 5388,
      "å¾Ĺç½ª": 5389,
      "éŃıéĥ¡": 5390,
      "ç½®éħĴ": 5391,
      "çĮĹ": 5392,
      "è¯»ä¹¦": 5393,
      "æ¼ķ": 5394,
      "åĥ®": 5395,
      "ä¹ĭä½į": 5396,
      "æľīä»¥": 5397,
      "æ³ļ": 5398,
      "å¤ļä¸į": 5399,
      "åĴĮåħĥå¹´": 5400,
      "ä¸įåı¯ä¸į": 5401,
      "èĵ¬": 5402,
      "ç£Ĳ": 5403,
      "ä¸ºéĥ½çĿ£": 5404,
      "åĩĸ": 5405,
      "åįĹæĸ¹": 5406,
      "åľ¨æŃ¤": 5407,
      "æķħæľī": 5408,
      "æ®ĸ": 5409,
      "é«ĺå¹³": 5410,
      "çĦ¶ä¹Ł": 5411,
      "ç¼Ģ": 5412,
      "è´¥èµ°": 5413,
      "å¾Ģå¾Ģ": 5414,
      "çģŃä¹ĭ": 5415,
      "èĦī": 5416,
      "å·´è¥¿": 5417,
      "ä¸įèĭ¥": 5418,
      "åĨĽåĽ½": 5419,
      "å®īä¹Ĳ": 5420,
      "æĥ³": 5421,
      "è§ģä¸Ĭ": 5422,
      "çĬĬ": 5423,
      "çĮ¥": 5424,
      "åĤ¥": 5425,
      "åº·æĽ°": 5426,
      "å¯»éĻ¤": 5427,
      "èĢĮåıį": 5428,
      "è¿ĺäº¬å¸Ī": 5429,
      "çĿ¹": 5430,
      "è´¼å¸ħ": 5431,
      "å°Ħä¹ĭ": 5432,
      "åĪĻä¸º": 5433,
      "æŃ£åħī": 5434,
      "åĬłä¾įä¸Ń": 5435,
      "åĽ¾ä¹ĭ": 5436,
      "è´ŀè§Ĥ": 5437,
      "éŀł": 5438,
      "åįŀ": 5439,
      "ä¸įæ»¡": 5440,
      "åħ¶å¤§": 5441,
      "ä»İåħĦ": 5442,
      "æŃ¦éĻµçİĭ": 5443,
      "åĭĹ": 5444,
      "åĹ£ä½į": 5445,
      "çĳĹ": 5446,
      "çĨ¹": 5447,
      "éĴŁç¦»": 5448,
      "å¤Ķ": 5449,
      "ä¸īæĽ°": 5450,
      "è¨Ģä¸į": 5451,
      "ç¬ŀ": 5452,
      "èħ°": 5453,
      "åı©å¤´": 5454,
      "éĻĢ": 5455,
      "å°Ĩä½ľ": 5456,
      "èĢħä¹İ": 5457,
      "éĺ²åĨĽ": 5458,
      "çĲĥ": 5459,
      "è®®æĽ°": 5460,
      "åĻª": 5461,
      "äººæĹł": 5462,
      "ç»ķ": 5463,
      "æ¯Ĥ": 5464,
      "åĽĽåį·": 5465,
      "æ±īåħµ": 5466,
      "åīĸ": 5467,
      "æ¬²ä¸º": 5468,
      "æ°¸æĺĮ": 5469,
      "æ¥ļåŃĲ": 5470,
      "è¡ŀå°ī": 5471,
      "è´¾éĢµ": 5472,
      "īç¿»": 5473,
      "ä¹ĭèģĮ": 5474,
      "åį¤": 5475,
      "åħ¶åŁİ": 5476,
      "æĤį": 5477,
      "å£«æ°ĳ": 5478,
      "çĶŁåŃĲ": 5479,
      "ä¼ĹçļĨ": 5480,
      "éĴŀ": 5481,
      "åıĹä¹ĭ": 5482,
      "å»¶å¯¿": 5483,
      "æī¿åĪ¶": 5484,
      "éĩĬä¹ĭ": 5485,
      "åİ¿åĲįå±ŀ": 5486,
      "ä»¥çĮ®": 5487,
      "äºİçİĭ": 5488,
      "éĺĲ": 5489,
      "åįģä½Ļäºº": 5490,
      "åĮ®": 5491,
      "å°ļä¹¦å·¦ä¸ŀ": 5492,
      "å¼ĢéĹ¨": 5493,
      "é»ĦåĪĿ": 5494,
      "åĶĲä¸»": 5495,
      "è¥Ħçİĭ": 5496,
      "åŃ£ç¿»": 5497,
      "é¹Ħ": 5498,
      "èł²": 5499,
      "å²ŃåįĹ": 5500,
      "äº¨": 5501,
      "ä»¥éĩĳ": 5502,
      "ä¸įåħį": 5503,
      "å¸ĿæĹ¶": 5504,
      "æŃ¦å¾³": 5505,
      "æ¶§": 5506,
      "åģ¶": 5507,
      "æĺĵä»¥": 5508,
      "æŃ¢ä¹ĭ": 5509,
      "ä¸ľæµ·çİĭ": 5510,
      "çĽ¾": 5511,
      "äºĮä¸ĸ": 5512,
      "æĺ¯åĲİ": 5513,
      "å¹³éĻĪ": 5514,
      "åĩºæĪĺ": 5515,
      "åħŃåĽ½": 5516,
      "å¤«åŃĲ": 5517,
      "åĳ½ä¹Ł": 5518,
      "è´¤çİĭ": 5519,
      "é¼Ķ": 5520,
      "èµ´ä¹ĭ": 5521,
      "è¡Įä¸ĭåŃŁç¿»": 5522,
      "è®Ĳ": 5523,
      "å½©": 5524,
      "å¯Ĥ": 5525,
      "çĪª": 5526,
      "æĹ¥å¤ľ": 5527,
      "æĺİå½»": 5528,
      "æĶ¹æŃ£": 5529,
      "èµĲä¹ĭ": 5530,
      "å¼ķåĨĽ": 5531,
      "çĥŁ": 5532,
      "èµ°ä¹ĭ": 5533,
      "çĳķ": 5534,
      "å¹½å·ŀåĪºåı²": 5535,
      "æľĲ": 5536,
      "æĺ´": 5537,
      "æľīäºĮ": 5538,
      "æĭĤ": 5539,
      "äº¦æĹł": 5540,
      "é½Ĳä¸»": 5541,
      "é½Ĳç¥ŀæŃ¦": 5542,
      "åŃĿçİĭ": 5543,
      "äº¬åŁİ": 5544,
      "é¾ĻéĹ¨": 5545,
      "è´µè´±": 5546,
      "èĨĿ": 5547,
      "ä¹ĭéģĵä¹Ł": 5548,
      "å¤²": 5549,
      "ä¹ĭä¸ļ": 5550,
      "åħ¶æ°ĳ": 5551,
      "éĺ®": 5552,
      "é©¸": 5553,
      "èĩ£ä¸ĭ": 5554,
      "ä¸ĩå²ģ": 5555,
      "ä¸ĸä¸º": 5556,
      "å®£åŁİ": 5557,
      "åĽºè¯·": 5558,
      "ä¸īåįģä½Ļ": 5559,
      "ä¹ĭçĽĽ": 5560,
      "ä¸Ĭéĥ¡": 5561,
      "æ¯Ļ": 5562,
      "åİ¿ä¸ľåįĹ": 5563,
      "æŃ£å§ĭ": 5564,
      "æ°´éĻĨ": 5565,
      "è´¢çī©": 5566,
      "é¡¹çİĭ": 5567,
      "æ±īæĹ§åİ¿": 5568,
      "ä¸ºä¸ī": 5569,
      "ä¸įçº³": 5570,
      "ä¸įé¡¾": 5571,
      "ä¸įåłª": 5572,
      "æľīçĸ¾": 5573,
      "å¤§æĥĬ": 5574,
      "éĢ»": 5575,
      "åįĹæµ·": 5576,
      "é©º": 5577,
      "çĸĭ": 5578,
      "é¾Ľ": 5579,
      "å¼ķè§ģ": 5580,
      "éĵ¨": 5581,
      "éĽįäºİ": 5582,
      "è´ºæĭĶ": 5583,
      "éĹĹä¸Ń": 5584,
      "æ¶ķæ³£": 5585,
      "æĥ®ä¹ĭ": 5586,
      "äºİæ²³": 5587,
      "åĬ±": 5588,
      "åĽĽå¤·": 5589,
      "ä¸ĸæ°ĳ": 5590,
      "åīįæ±īå±ŀ": 5591,
      "å·²æĿ¥": 5592,
      "å¼ĢåĽ½": 5593,
      "å³¦": 5594,
      "å¤Ń": 5595,
      "ä¹ĭéķ¿": 5596,
      "ä¹ĭæģ©": 5597,
      "èĢĹ": 5598,
      "è¯ĥ": 5599,
      "éķľ": 5600,
      "ä¿¾": 5601,
      "æ³ĵ": 5602,
      "éĤ®": 5603,
      "ä¸ĩåĽ½": 5604,
      "æ¡Ĳ": 5605,
      "å¤ĸæĪļ": 5606,
      "é¾ļ": 5607,
      "æµģæĺŁ": 5608,
      "æĺĵæĽ°": 5609,
      "åĽ´ä¹ĭ": 5610,
      "æ·®åįĹçİĭ": 5611,
      "èįħæĽ°": 5612,
      "ä¸ºå¤©": 5613,
      "åĽłä¹ĭ": 5614,
      "æ¥ļä¹ĭ": 5615,
      "è®ºæĽ°": 5616,
      "åĨłåĨĽ": 5617,
      "å½ŃåŁİçİĭ": 5618,
      "ä¹ĭçĶļ": 5619,
      "ä»¥æĹ¶": 5620,
      "ä¹ĥå¾Ĺ": 5621,
      "æĦģ": 5622,
      "éĻįä¹ĭ": 5623,
      "ä¸įåı¯å¾Ĺ": 5624,
      "æī§æĶ¿": 5625,
      "æīŀ": 5626,
      "å¯¨": 5627,
      "æµ´": 5628,
      "æŃ»ä¹Ł": 5629,
      "äºĮåįģä¸Ģ": 5630,
      "éĹ´åı¤èĭĭç¿»": 5631,
      "è®°äºĳ": 5632,
      "ä¹ĭå°Ĩ": 5633,
      "ä¹ĭä¸»": 5634,
      "ä»¥åŃĿ": 5635,
      "èĢĮä¸Ĭ": 5636,
      "å®ļå·ŀåĪºåı²": 5637,
      "è¯·ä¸º": 5638,
      "é»Ħé¾Ļ": 5639,
      "ç»Īèº«": 5640,
      "æĥłçİĭ": 5641,
      "ç¢İ": 5642,
      "æ±īä¹¦éŁ³ä¹īæĽ°": 5643,
      "åĨĪ": 5644,
      "æľīåħµ": 5645,
      "éĤ±": 5646,
      "çĽ¸åİ»": 5647,
      "çĽ¸æĮģ": 5648,
      "æĭ¯": 5649,
      "ä¹īçĨĻ": 5650,
      "æĮł": 5651,
      "éªĳå°Ħ": 5652,
      "çĭİ": 5653,
      "æ³ķåº¦": 5654,
      "ç¥ŀæĺİ": 5655,
      "çĩ§": 5656,
      "èĢģåŃĲ": 5657,
      "î½®": 5658,
      "åıª": 5659,
      "æģ±": 5660,
      "åįĹåº·": 5661,
      "ä¹ĥèĩª": 5662,
      "ä»Ĭä»¥": 5663,
      "æ±īåħ´": 5664,
      "æĭľä¸º": 5665,
      "è¡¨æĽ°": 5666,
      "è¯Ńåľ¨": 5667,
      "è¿İä¹ĭ": 5668,
      "åĽĽåįģéĩĮ": 5669,
      "é»İéĺ³": 5670,
      "é¨": 5671,
      "ä¸įå¿ĺ": 5672,
      "äºİæĻĭ": 5673,
      "åľľ": 5674,
      "å¤ªå±±": 5675,
      "ä¸īåįģäºĮ": 5676,
      "æĢ¯": 5677,
      "åħŃäºº": 5678,
      "åħŃåį·": 5679,
      "å¾ģåįĹ": 5680,
      "æĺŃåħ¬": 5681,
      "æĩ¦": 5682,
      "éļĤéĺ³": 5683,
      "è´¡çĮ®": 5684,
      "èĭįæ¢§": 5685,
      "é©¸é©¬": 5686,
      "äºİæ±ī": 5687,
      "åħ¶å°Ĩ": 5688,
      "èĢħæĽ°": 5689,
      "çŁĽ": 5690,
      "åħĥæĽ°": 5691,
      "èİħ": 5692,
      "æĸ¹ä»Ĭ": 5693,
      "å¹¿å·ŀåĪºåı²": 5694,
      "æĸ°éĩİ": 5695,
      "å¤·çĭĦ": 5696,
      "èįīæľ¨": 5697,
      "åºĦåħ¬": 5698,
      "ä»¥åºĶ": 5699,
      "äºİåĮĹ": 5700,
      "æĹłçĽĬ": 5701,
      "åįĹéĿ¢": 5702,
      "åŁİä¹Ł": 5703,
      "æĸĩæĺİ": 5704,
      "çļĨäºĳ": 5705,
      "æŃ£ä¹Ł": 5706,
      "å¥ıæĽ°": 5707,
      "ç»Łåİ¿": 5708,
      "å¼ĥåŁİ": 5709,
      "è¯»æĽ°éĺµ": 5710,
      "éª¸éª¨": 5711,
      "çİĭåĽ½": 5712,
      "åĽĽåĪĨ": 5713,
      "æŀ£": 5714,
      "æ´º": 5715,
      "ä½įèĩ³": 5716,
      "åŃĿå®½": 5717,
      "å¤ĦåĪĨ": 5718,
      "èķ²": 5719,
      "æĽ·ä¸º": 5720,
      "æĽ°åĲĽ": 5721,
      "å¼Ľ": 5722,
      "æģĭ": 5723,
      "æ°´ä¹ĭ": 5724,
      "åĽłåħ¶": 5725,
      "åĪĳç½ļ": 5726,
      "æŀ¢å¯Ĩ": 5727,
      "äºİåĳ¨": 5728,
      "è°Ħ": 5729,
      "å½¬": 5730,
      "åħ¥å£°": 5731,
      "éŃıæ°ı": 5732,
      "ç½®ä¹ĭ": 5733,
      "å¼łæĻıæĽ°": 5734,
      "ç»ĪæĹ¥": 5735,
      "é¬¬": 5736,
      "åªļ": 5737,
      "ä¸įèĩªå®ī": 5738,
      "ä¹ĭæľ«": 5739,
      "ä¸ºå¤©ä¸ĭ": 5740,
      "è°ĺ": 5741,
      "å¸Ŀåį³ä½į": 5742,
      "è¾į": 5743,
      "èĩªåı·": 5744,
      "åıĪè¯ı": 5745,
      "èĩ£çªĥ": 5746,
      "èĬľ": 5747,
      "éĻĪè¯»æĽ°éĺµ": 5748,
      "å§ĵè°±": 5749,
      "æĸ°èĶ¡": 5750,
      "çĳŁ": 5751,
      "åĨ¬åįģä¸ĢæľĪ": 5752,
      "éĥĬç¥Ģ": 5753,
      "å¤ªå¸¸åį¿": 5754,
      "ä¹ĭæľ¯": 5755,
      "äºİåĽ½": 5756,
      "äººåĲĽ": 5757,
      "æľīéļĻ": 5758,
      "éĹ¼": 5759,
      "ä¸īéĥ¡": 5760,
      "ä¸ĭæľī": 5761,
      "éĽ¹": 5762,
      "å£«å¤§å¤«": 5763,
      "æ°´åĨĽ": 5764,
      "åħ³åĨħä¾¯": 5765,
      "é¹Ĭ": 5766,
      "äºİåľ°": 5767,
      "è§ĩ": 5768,
      "ä¸īçİĭ": 5769,
      "ä¸ĭéģĲ": 5770,
      "ä¹¦äºĳ": 5771,
      "åıĬéķ¿": 5772,
      "æŀ¹": 5773,
      "æķ°ä¸ĩäºº": 5774,
      "äºĮåįģåį·": 5775,
      "æĹ§ç½®": 5776,
      "ä»²åłª": 5777,
      "ç¬¬äºĶ": 5778,
      "éĽĨè§£æľįéĺ²æĽ°": 5779,
      "æ¤Ĵ": 5780,
      "èĢĥå¼ĤæĽ°æĹ§": 5781,
      "æĸĽå¾ĭ": 5782,
      "éĽįäºİçĶ¨ç¿»": 5783,
      "ä¸ºå°ļä¹¦ä»¤": 5784,
      "åħ¶çİĭ": 5785,
      "åıĪä½¿": 5786,
      "é¥·": 5787,
      "å¾ĭä»¤": 5788,
      "æĬ¤åĨĽå°ĨåĨĽ": 5789,
      "è¹ĩ": 5790,
      "äºİåĨħ": 5791,
      "èĢħå¿ħ": 5792,
      "ä¸ľéĺ³": 5793,
      "æĥĩ": 5794,
      "é¥¿": 5795,
      "å½ķä¸Ģåį·": 5796,
      "ãĢıï¼Į": 5797,
      "ä¸Ńå±±çİĭ": 5798,
      "è¡ĮåĨĽæĢ»ç®¡": 5799,
      "ä¹ĭè®®": 5800,
      "ä¸įå¤±": 5801,
      "åľī": 5802,
      "ç½´": 5803,
      "åıĬä¹Ł": 5804,
      "åħ¥æµ·": 5805,
      "æĮĳ": 5806,
      "æ®Ĥ": 5807,
      "å¤ļå°ĳ": 5808,
      "åį¿çŃī": 5809,
      "ä»ªæĽ°": 5810,
      "è¿½å°Ĭ": 5811,
      "æ·®éĺ³": 5812,
      "æĹ©åįĴ": 5813,
      "ä¹ĭåĪĨ": 5814,
      "éĥĹ": 5815,
      "ä¿¸": 5816,
      "é«ª": 5817,
      "ç»ıäºĮ": 5818,
      "ç¼Ĺ": 5819,
      "éģĩå®³": 5820,
      "åı¹æģ¯": 5821,
      "éĽĨè§§å¾Ĳå¹¿æĽ°": 5822,
      "åĤīæªĢ": 5823,
      "ä¹ĭçŁ£": 5824,
      "ä¹ĭå¼Ł": 5825,
      "æīĢç½®": 5826,
      "æĹłå¸¸": 5827,
      "ä»İåŃĲ": 5828,
      "å°īè¿Ł": 5829,
      "åı·ä»¤": 5830,
      "å°§ç¿»": 5831,
      "å¤¸": 5832,
      "ä¸ºéĥ¡": 5833,
      "ä¸įç»Ŀ": 5834,
      "åħ¶å®ŀ": 5835,
      "è¡·": 5836,
      "éļ£": 5837,
      "åı¯ä¸º": 5838,
      "æŃ»ç½ª": 5839,
      "åħĪçİĭä¹ĭ": 5840,
      "åıĹè¯ı": 5841,
      "è¯¸èĳĽäº®": 5842,
      "åĪ¤å®ĺ": 5843,
      "ä¹ĭçĶ¨": 5844,
      "èĩ¾": 5845,
      "æĺķ": 5846,
      "å¤§ä¹ī": 5847,
      "æĹłå¼Ĥ": 5848,
      "æĺ¯è°ĵ": 5849,
      "æŃ¤åħ¶": 5850,
      "éģĵæĪĲ": 5851,
      "ä½ķå¿ħ": 5852,
      "å¹¶æľī": 5853,
      "çļĩå¸Ŀä½į": 5854,
      "è§Ĩäºĭ": 5855,
      "æĿ¾ä¹ĭ": 5856,
      "ä»¤æĽ°": 5857,
      "æĤĽ": 5858,
      "èĬ¬": 5859,
      "åħ´åħĥå¹´": 5860,
      "ä¸ľè§Ĥè®°æĽ°": 5861,
      "ä»¥åĮĹ": 5862,
      "èĢĮæĿĢä¹ĭ": 5863,
      "è§Ĳ": 5864,
      "æĹłç©·": 5865,
      "å¤įä½ķ": 5866,
      "æİ§": 5867,
      "å£«é©¬": 5868,
      "æ¬²ç«ĭ": 5869,
      "æ®ĩ": 5870,
      "äº¦æĽ°": 5871,
      "è®¸æĺĮ": 5872,
      "åı²è®°åį·": 5873,
      "ä¸įåĲĪ": 5874,
      "ä¹Łä»¥": 5875,
      "è°ł": 5876,
      "èĩªçĦ¶": 5877,
      "èĩªéĻĪ": 5878,
      "ä¹ĥåĳ½": 5879,
      "å±±è°·": 5880,
      "åħŃæĹ¥": 5881,
      "äº¦ä¸º": 5882,
      "æħ·": 5883,
      "èµ·äºİ": 5884,
      "æĺŁæĽ°": 5885,
      "è¥ĦåŁİ": 5886,
      "æĤ£ä¹ĭ": 5887,
      "ä¸īåįĥäºº": 5888,
      "éĽģéĹ¨": 5889,
      "æľīåŃĲ": 5890,
      "ä¸īçľģ": 5891,
      "æŃ¤æĹ¶": 5892,
      "å±±éĻµ": 5893,
      "éĬ": 5894,
      "î¢": 5895,
      "ä¹ĭå¾·": 5896,
      "ä¸ºå¤§å°ĨåĨĽ": 5897,
      "èĢĮè¨Ģ": 5898,
      "èĢĮæĪĲ": 5899,
      "çİĭæķ¦": 5900,
      "éĺĶ": 5901,
      "å¤§ä½Ļ": 5902,
      "äºĮå°º": 5903,
      "ä¸ĭè¯ıæĽ°": 5904,
      "åıĪç½®": 5905,
      "ä¹ĥåĩº": 5906,
      "éĻµåİ¿": 5907,
      "åĪĨåħµ": 5908,
      "ç®¡ä»²": 5909,
      "èĦļ": 5910,
      "æĸŃä¸ģ": 5911,
      "æĽ¾ç¥ĸ": 5912,
      "ä¸ºåĮĹ": 5913,
      "ä½³": 5914,
      "äººèĢħ": 5915,
      "éĺī": 5916,
      "åı¤æĸĩ": 5917,
      "å¥ıè¯·": 5918,
      "å¥īè¡¨": 5919,
      "å¢Ł": 5920,
      "éĵł": 5921,
      "èĬĤåº¦ä½¿æĿİ": 5922,
      "æĭĽè®¨": 5923,
      "îľ": 5924,
      "ä¸ºåĪºåı²": 5925,
      "ä¸įç§°": 5926,
      "è¿Ħ": 5927,
      "è°¶": 5928,
      "å¤§æĥ§": 5929,
      "åįĹå®ī": 5930,
      "éĽ©": 5931,
      "é©´": 5932,
      "çĬ¹è¨Ģ": 5933,
      "éĽĨè§£åŃĶå®īåĽ½æĽ°": 5934,
      "åŃĺäº¡": 5935,
      "åħŃåįģéĩĮ": 5936,
      "èıĳ": 5937,
      "ä¹ĭè·¯": 5938,
      "äºĮæ±ī": 5939,
      "è¡Įäºİä¸ĸ": 5940,
      "ä¹ĥå¤į": 5941,
      "æİ¢": 5942,
      "æĮ«": 5943,
      "éªĳæł¡å°ī": 5944,
      "éªĳå¥ĩ": 5945,
      "éĿŀæīĢä»¥": 5946,
      "éĻµéĥ¡": 5947,
      "âĢĿãĢĤ": 5948,
      "ä¸Ńä¹¦éĥİ": 5949,
      "æĹĦ": 5950,
      "åĨĽæĹħ": 5951,
      "ä¸ŃåħµåıĤåĨĽ": 5952,
      "äºĶå¯¸": 5953,
      "éªļ": 5954,
      "æŃ¦åĬŁ": 5955,
      "è¯¸åħ¬": 5956,
      "ä¹īå®£": 5957,
      "åĲĮå·ŀ": 5958,
      "éģ£åŃĲ": 5959,
      "éĥİå°Ĩ": 5960,
      "æ¶Ľ": 5961,
      "ä¸´æµ·": 5962,
      "åį«å¤§å°ĨåĨĽ": 5963,
      "çİĦæĦŁ": 5964,
      "åŃŁåŃĲæĽ°": 5965,
      "ç¿°æŀĹ": 5966,
      "ä¸įæľį": 5967,
      "ä¸įèİ·": 5968,
      "æĺ¨": 5969,
      "æľīå®ł": 5970,
      "åĲİä¹ĭ": 5971,
      "æĻ·": 5972,
      "å®ĺä¹Ł": 5973,
      "æĪĲåħ¬": 5974,
      "å®ļéĻ¶": 5975,
      "è½¦å¸Ī": 5976,
      "æĪĸä»¥": 5977,
      "ä»£éĥ¡": 5978,
      "èĶĳ": 5979,
      "é©Ń": 5980,
      "ä¹ĥä¸º": 5981,
      "çĽ¸æĶ»": 5982,
      "åį³çļĩå¸Ŀä½į": 5983,
      "åŃĹä»²": 5984,
      "è½¦é©¬": 5985,
      "é«Ļå¸Ŀ": 5986,
      "å°Ķæľ±": 5987,
      "è¸Ĭ": 5988,
      "ä¸įæĺİ": 5989,
      "åŃĲèī¯": 5990,
      "å·ŀäºº": 5991,
      "åĳĪ": 5992,
      "åħ¬ä¼ļ": 5993,
      "åħµæ³ķ": 5994,
      "ä½ķæķħ": 5995,
      "å£«å¼Ģ": 5996,
      "åĿİ": 5997,
      "å®ļè¥Ħ": 5998,
      "éĹ®ç¿»": 5999,
      "èĶ¡éĤķ": 6000,
      "æħ·æħ¨": 6001,
      "ä»¥èº«": 6002,
      "ä¸ºéŃı": 6003,
      "å¹´è¡¨": 6004,
      "ä¸Ģéĥ¨": 6005,
      "åı²å®ĺ": 6006,
      "éĹ®åħ¶æķħ": 6007,
      "çªĺ": 6008,
      "èĢ³çĽ®": 6009,
      "å§ĳèĩ§": 6010,
      "ä¸ºå¸Ŀ": 6011,
      "åĪģ": 6012,
      "åľº": 6013,
      "èĩ³éķ¿å®ī": 6014,
      "ä¸İæĪĺ": 6015,
      "è¡Įåľ¨": 6016,
      "è¯¸çĶŁ": 6017,
      "åľ°åĲį": 6018,
      "è¢į": 6019,
      "å´ĸ": 6020,
      "ä¹Ĳå®ī": 6021,
      "æ¥¯": 6022,
      "é³¯ç¿Ķ": 6023,
      "æĽ°æĺĶ": 6024,
      "åħ¶æīį": 6025,
      "äºĮéĥ¡å¤ªå®Ī": 6026,
      "çļĿ": 6027,
      "èĩ³äº¬å¸Ī": 6028,
      "èĻ¹": 6029,
      "çīĪ": 6030,
      "åĴĦ": 6031,
      "æ®Ĵ": 6032,
      "éŁ³åįĩ": 6033,
      "åŃĿå»ī": 6034,
      "é¦¬": 6035,
      "è·¨": 6036,
      "æĹ§æĽ°": 6037,
      "ç¬¬åĽĽ": 6038,
      "æ¸¡æ²³": 6039,
      "åĳĺå¤ĸæķ£éªĳä¾įéĥİ": 6040,
      "åĲİæ±īä¹¦åį·": 6041,
      "ä¸ºåº¶äºº": 6042,
      "ä¸įè¿Ľ": 6043,
      "åŃĲäº§": 6044,
      "åºķ": 6045,
      "åĩĳ": 6046,
      "çº¡": 6047,
      "åİ¿è¥¿åįĹ": 6048,
      "åħŃåĲĪ": 6049,
      "åĳ¨æĺĵ": 6050,
      "åı¤çİ©": 6051,
      "äº¡åĳ½": 6052,
      "å¢ī": 6053,
      "å±¯çĶ°": 6054,
      "èĳĽèį£": 6055,
      "éĥ¢å·ŀ": 6056,
      "èĢĮä¸ľ": 6057,
      "è¡¢": 6058,
      "å°ĨåĲı": 6059,
      "å¤ªæ¸ħ": 6060,
      "æ²¾": 6061,
      "éķł": 6062,
      "çŃīå¹¶": 6063,
      "åĲĮéĥ¡": 6064,
      "åħ«åį·": 6065,
      "æ°¸å®ģ": 6066,
      "éĶ¢": 6067,
      "ä¸§ä¹±": 6068,
      "å¼±åĨł": 6069,
      "éĹŃéĹ¨": 6070,
      "äºİåįĹ": 6071,
      "å¿«": 6072,
      "éªĭ": 6073,
      "éģĵæŃ¦": 6074,
      "æĻĭçģ¼": 6075,
      "èĭ¥ä»¥": 6076,
      "åĽłä»¥ä¸º": 6077,
      "å²ĤéĿŀ": 6078,
      "åºĻåı·": 6079,
      "äº¤éĢļ": 6080,
      "æ²®æ¸ł": 6081,
      "è±«ç«łçİĭ": 6082,
      "èĿī": 6083,
      "äºİæ°ĳ": 6084,
      "è®·": 6085,
      "éĹ³": 6086,
      "æ²¸": 6087,
      "ä¸ľèİ±": 6088,
      "åŃĹåħĥ": 6089,
      "å¼Ģåħĥ": 6090,
      "æĩĪ": 6091,
      "åĩīå·ŀåĪºåı²": 6092,
      "æĺĨå¼Ł": 6093,
      "ä¹ĭæ°Ķ": 6094,
      "ä»¥æĸĩ": 6095,
      "äºİä¸Ń": 6096,
      "å£»": 6097,
      "å·¦éķ¿åı²": 6098,
      "åĨħéĻĦ": 6099,
      "èĤĸ": 6100,
      "è´¤èī¯": 6101,
      "ä¼Ĳéĥĳ": 6102,
      "åĲķåĲİ": 6103,
      "è¾ĵèĬ®ç¿»": 6104,
      "è¿ĺä»İå®£ç¿»åıĪå¦ĤåŃĹ": 6105,
      "ä¸įæŃ»": 6106,
      "åħ¶åħµ": 6107,
      "æľīéģĵ": 6108,
      "èµĥ": 6109,
      "å¥ĸ": 6110,
      "æīĢå®ľ": 6111,
      "çļĨå¦Ĥ": 6112,
      "æİª": 6113,
      "è¿ĺèĩ³": 6114,
      "æĿ¥å¥Ķ": 6115,
      "è´¤èĢħ": 6116,
      "äºĮå¹´æĺ¥æŃ£æľĪ": 6117,
      "åĹľ": 6118,
      "æģĲåħ¶": 6119,
      "æ¹ĺå·ŀåĪºåı²": 6120,
      "ä¹ĭçĲĨ": 6121,
      "äºİéĤº": 6122,
      "éĹĩ": 6123,
      "å¤ªçļĩå¤ªåĲİ": 6124,
      "çĽ¸å·ŀ": 6125,
      "ä¹īéļĨ": 6126,
      "çŃīä»¥": 6127,
      "æľĿè®®": 6128,
      "éŃıæŃ¦": 6129,
      "é¡Ĺ": 6130,
      "æľ¬å·ŀ": 6131,
      "åĲĪèĤ¥": 6132,
      "éĦĤ": 6133,
      "çĤŃ": 6134,
      "ç¥¸ç¦ı": 6135,
      "åħĶ": 6136,
      "ä¹ĭåı·": 6137,
      "ä¸īä»£": 6138,
      "äºĶå®ĺ": 6139,
      "ä¸ĥåįģäºĮ": 6140,
      "éªĳéĥ½å°ī": 6141,
      "åįİæŀĹ": 6142,
      "ä¼ıæĥŁ": 6143,
      "éĽħç¿»": 6144,
      "ç¥·": 6145,
      "è¾ĳ": 6146,
      "ä¸İäºº": 6147,
      "åĽĽå·ŀ": 6148,
      "è§ģèĢħ": 6149,
      "åĴ½": 6150,
      "è¢Ĵ": 6151,
      "åŃĹä¼¯": 6152,
      "åºľåºĵ": 6153,
      "äºĮåįģäºº": 6154,
      "äºĮåįģä¸Ģå¹´": 6155,
      "æ´Ľå·ŀ": 6156,
      "å¥Ķèµ°": 6157,
      "éļĭå¿Ĺ": 6158,
      "ç¦½åħ½": 6159,
      "å¥ĳä¸¹ä¸»": 6160,
      "å¤§åĳ¼": 6161,
      "åİ¢": 6162,
      "ç§£": 6163,
      "åĲĽä¹Ł": 6164,
      "å»ºä¸ļ": 6165,
      "ç§°ä¸º": 6166,
      "å¾ģæĭľ": 6167,
      "çĽ´è¨Ģ": 6168,
      "æ¶£": 6169,
      "æĢĿæĺİ": 6170,
      "èĥľéŁ³åįĩ": 6171,
      "å¼ıåıĪç¿»": 6172,
      "åĲıéĥ¨éĥİ": 6173,
      "ä¹ĭæ¬²ç¿»": 6174,
      "ãĢķ": 6175,
      "åįģæĹ¥": 6176,
      "ç»ħ": 6177,
      "äºĮçİĭ": 6178,
      "æĹłæľī": 6179,
      "æĺ¯åħ¶": 6180,
      "ä»¤äºº": 6181,
      "å½ĵåľ¨": 6182,
      "åĲıäºº": 6183,
      "è¡¨è¯·": 6184,
      "ä»»åŁİçİĭ": 6185,
      "åĳĬä¹ĭ": 6186,
      "âĸ¡ï¼Į": 6187,
      "å¤įæī¶åıĪç¿»ä¸ĭåĲĮ": 6188,
      "æ·³äºİ": 6189,
      "åħ¶éģĵ": 6190,
      "è¿ª": 6191,
      "å¹´èĢģ": 6192,
      "éĢĸ": 6193,
      "èĩ³åŃĿ": 6194,
      "è¡ĮèĢħ": 6195,
      "éĢļäºĭ": 6196,
      "ç¼¨": 6197,
      "æŁ¯": 6198,
      "åĤ²": 6199,
      "æĺ¥ç§ĭæĽ°": 6200,
      "å®¿è¡ŀ": 6201,
      "åı¤çİ©ç¿»": 6202,
      "ãĢĶ": 6203,
      "ä¹ĭåľ¨": 6204,
      "ä¹ĭåīį": 6205,
      "åįŃ": 6206,
      "ä»¥æľ¬å®ĺ": 6207,
      "åħ¶éĹ´": 6208,
      "ä¸ĭä¹ĭ": 6209,
      "ä¸ľéģĵ": 6210,
      "éĥ¡ä¸º": 6211,
      "èĩ£æĦļ": 6212,
      "å¤įéģ£": 6213,
      "æľªéĹ»": 6214,
      "ä¹Ŀåį·": 6215,
      "äºĮåįģä¸īå¹´": 6216,
      "æĢĢåħī": 6217,
      "äº¤å·ŀ": 6218,
      "å§Ķä»¥": 6219,
      "å´Ķæµ©": 6220,
      "ä»¥å¥ī": 6221,
      "æĢ¡": 6222,
      "æľªå¾Ĺ": 6223,
      "ä½Ļä¼Ĺ": 6224,
      "çĬĢ": 6225,
      "åĴĮäºĮå¹´": 6226,
      "æĳł": 6227,
      "é¬»": 6228,
      "ä¹ĭæľį": 6229,
      "éĺķ": 6230,
      "ç»Ħ": 6231,
      "åŁİéĥŃ": 6232,
      "èĩ£ä»¥": 6233,
      "æ°´æĹ±": 6234,
      "åĶĲå±ŀ": 6235,
      "æ¡ĵå¸Ŀ": 6236,
      "éĥ¢å·ŀåĪºåı²": 6237,
      "åįĴäºİå®¶": 6238,
      "ä»¥çĪ¶": 6239,
      "åĽ¢": 6240,
      "éĥħ": 6241,
      "ç¿ķ": 6242,
      "ä¸Ģå°º": 6243,
      "æľªå°½": 6244,
      "ä½Ļè°ĵ": 6245,
      "æ±Łè¡¨": 6246,
      "æĿİæ°ı": 6247,
      "å¨±": 6248,
      "æ²»ä¹ĭ": 6249,
      "æķ¬çĳ": 6250,
      "çľģèģ²": 6251,
      "çº³è¨Ģ": 6252,
      "èģªæĺİ": 6253,
      "æ¿®éĺ³": 6254,
      "åĩºèĩª": 6255,
      "åįĥéĩĳ": 6256,
      "éŃıä¹ĭ": 6257,
      "è¿ĽæĽ°": 6258,
      "åįİéĺ³": 6259,
      "çĳ¶": 6260,
      "éģ£ä½¿çĮ®": 6261,
      "åĲĿ": 6262,
      "ä»¥æĬ¥": 6263,
      "æĹłä¸º": 6264,
      "ç¤¼ä»ª": 6265,
      "çĻ½èĻİ": 6266,
      "è®ºèĢħ": 6267,
      "åĿļå°§ç¿»": 6268,
      "æĭĶä¹ĭ": 6269,
      "äºĶçĻ¾äºº": 6270,
      "è¹ĳ": 6271,
      "æ¬§éĺ³": 6272,
      "éĴľé¹¿": 6273,
      "ä»¥åŃĲ": 6274,
      "æľīæĸĩ": 6275,
      "å¤§ä¹Ł": 6276,
      "èµī": 6277,
      "ä¸ŃäºĮåįĥçŁ³": 6278,
      "ä½¿åĲĽ": 6279,
      "èĩªéĿŀ": 6280,
      "æ±īä¸»": 6281,
      "åħ¥çĦī": 6282,
      "ä¸»èĢħ": 6283,
      "é©¬éĤĳ": 6284,
      "å°ĳåĤħ": 6285,
      "äºĮåįģäºĮ": 6286,
      "æĺŃä»ª": 6287,
      "ä»²èĪĴ": 6288,
      "æī¶éĹ®ç¿»": 6289,
      "èµ¦ä¹ĭ": 6290,
      "äºĶçĻ¾éĩĮ": 6291,
      "æĹ¬æĹ¥": 6292,
      "åĳĺå¤ĸæķ£éªĳå¸¸ä¾į": 6293,
      "åĳľåĳ¼": 6294,
      "Ĥä¹ĭ": 6295,
      "ä¹ĭä¹¦": 6296,
      "ä¸ĭå¤§å¤«": 6297,
      "ä¸Ĭå¹´": 6298,
      "æŃ£èī²": 6299,
      "åĵĻ": 6300,
      "äºĮåįģä¸ĩ": 6301,
      "è¿ĩä¹Ł": 6302,
      "èİ«ä¹ĭ": 6303,
      "ä¼Ĳé½Ĳ": 6304,
      "åľŁåľ°": 6305,
      "ä¾¿å®ľ": 6306,
      "èľĢä¸»": 6307,
      "å¤ªçĻ½çĬ¯": 6308,
      "ä»¥å½Ĵ": 6309,
      "å¹¡": 6310,
      "å¤§å®ĺ": 6311,
      "ç¥¯": 6312,
      "éļľ": 6313,
      "åıĪä»¤": 6314,
      "éĺ²äºİ": 6315,
      "åĲĮå¿ĥ": 6316,
      "åįĥè½½": 6317,
      "æŃ»äº¡": 6318,
      "åĳ¨å®ĺ": 6319,
      "åħĪæľĿ": 6320,
      "ä¸´æ±Ł": 6321,
      "åģ·": 6322,
      "åįļåŃ¦": 6323,
      "æħ§æĻ¯": 6324,
      "ç¥«": 6325,
      "æīĢçł´": 6326,
      "åħ¥è§ģ": 6327,
      "æľªå¤®": 6328,
      "åįĥæĪ·": 6329,
      "åı³ä¸ŀ": 6330,
      "å¼Ĥä¹Ł": 6331,
      "æĪĸä½ľ": 6332,
      "çĶļå¤ļ": 6333,
      "èĴ¯": 6334,
      "é«ĺç¥ĸæĽ°": 6335,
      "ä¹ĭç±»": 6336,
      "å¤§æĹ±": 6337,
      "æĹłç¤¼": 6338,
      "åŃĹæĸĩ": 6339,
      "è¿ģéĥ½": 6340,
      "çľŁåĲĽ": 6341,
      "åĽ½åŃĲç¥ŃéħĴ": 6342,
      "ä¸įæĶ¹": 6343,
      "ãĢĲâĹĭ": 6344,
      "çİĭåĳ½": 6345,
      "åħ¬åºľ": 6346,
      "è¯¸éĥ¨": 6347,
      "éŃıäºº": 6348,
      "éģĤèĩ³": 6349,
      "çĶ¨ä¹Ł": 6350,
      "éĿŀä¸Ģ": 6351,
      "æĺ¥äºĮæľĪ": 6352,
      "ç»ŁåĨĽ": 6353,
      "å¼ĥä¹ĭ": 6354,
      "çģ¾å¼Ĥ": 6355,
      "åħ¶éĹ¨": 6356,
      "è°¿": 6357,
      "èĩªçŁ¥": 6358,
      "äºĶçŃī": 6359,
      "åŁİéĻį": 6360,
      "åıĪä¸į": 6361,
      "è¯¸åĦĴ": 6362,
      "åĮĹèĩ³": 6363,
      "å®¶è´«": 6364,
      "çĽ±": 6365,
      "ä¸Ńé¢ĨåĨĽ": 6366,
      "èĩªçĽ¸": 6367,
      "äºĶèī²": 6368,
      "åĽĽæĽ°": 6369,
      "è½²": 6370,
      "éĺ²ä¹Ł": 6371,
      "éŃıæĸĩå¸Ŀ": 6372,
      "åŃ¦èĢħ": 6373,
      "çĥĿ": 6374,
      "è¦ĥ": 6375,
      "å°§èĪľ": 6376,
      "å·ŀä»¥": 6377,
      "åİ¨": 6378,
      "æŃ¤äºĭ": 6379,
      "å¸Īäºİ": 6380,
      "è±º": 6381,
      "ä¼Ĳä¹ĭ": 6382,
      "é¡ºå¸Ŀ": 6383,
      "çļĥ": 6384,
      "æĢı": 6385,
      "åħµèĩ³": 6386,
      "åı¯ä¹İ": 6387,
      "é¢ģ": 6388,
      "åĪĨæī¶éĹ®ç¿»": 6389,
      "æ±Ĥä¹ĭ": 6390,
      "è¡£é£Ł": 6391,
      "èľĢéĥ¡": 6392,
      "âĸ¡ãĢĤ": 6393,
      "åħ«åįģéĩĮ": 6394,
      "å¼ĢçļĩåĪĿéĥ¡åºŁ": 6395,
      "ä¸įæģ¯": 6396,
      "æĽ°åħ¬": 6397,
      "ä¸īåŃĲ": 6398,
      "æ²¹": 6399,
      "åľ¨ä¸Ĭ": 6400,
      "çĽ¸çİĩ": 6401,
      "ä½ķè¶³": 6402,
      "åĪĿç½®": 6403,
      "å¾·ä¹ĭ": 6404,
      "æħĿ": 6405,
      "èĤ¡èĤ±": 6406,
      "ä»¥èĩ´": 6407,
      "å¹·": 6408,
      "å¤§éĽ¨": 6409,
      "æķħè°ĵä¹ĭ": 6410,
      "ä»Ĭèĭ¥": 6411,
      "çīĢ": 6412,
      "å½ĵä»Ĭ": 6413,
      "æĪĲåĬŁ": 6414,
      "å®ļåĽĽ": 6415,
      "å¾ģä¹ĭ": 6416,
      "æĪĺèĢĮ": 6417,
      "åı¬ä¹ĭ": 6418,
      "æ¹¿": 6419,
      "å±¯äºİ": 6420,
      "é¹ĺ": 6421,
      "è°ıè®®å¤§å¤«": 6422,
      "çıŃåĽº": 6423,
      "éĥİä¸Ńä»¤": 6424,
      "ä¸ºå®«": 6425,
      "äºİåħ¬": 6426,
      "èĢĮçĶŁ": 6427,
      "æľīåıĺ": 6428,
      "èµľ": 6429,
      "ä¸ľäº¬": 6430,
      "åĩºå¡ŀ": 6431,
      "æĻĭå¤ªåº·": 6432,
      "åĪĨç½®": 6433,
      "ç¨ł": 6434,
      "å¨ģä»ª": 6435,
      "å®¹ç¿»": 6436,
      "æ·®åĮĹ": 6437,
      "ä¿Ŀå®ļ": 6438,
      "æ²³éĹ´çİĭ": 6439,
      "èĢĮæĿ¥": 6440,
      "æīĢæ¬²": 6441,
      "èįĺ": 6442,
      "ä¸ĩè®¡": 6443,
      "æ¬²èĩª": 6444,
      "åħ«åįģä¸Ģ": 6445,
      "å±ŀä¹ĭæ¬²ç¿»": 6446,
      "æ³ķä»¤": 6447,
      "éĻ¤åĲį": 6448,
      "èİ«å¤§": 6449,
      "åı¸éļ¶æł¡å°ī": 6450,
      "é©¸é©¬éĥ½å°ī": 6451,
      "èĢĮèĥ½": 6452,
      "å·ŀä¹Ł": 6453,
      "å·ŀåŁİ": 6454,
      "èĢħåĪĻ": 6455,
      "èĩªèĭ¥": 6456,
      "éĥ¡æ²»": 6457,
      "ä¼łé¦ĸ": 6458,
      "åĥ»": 6459,
      "é«Ļä¸½": 6460,
      "æ¯ıæľī": 6461,
      "ç°Ĵ": 6462,
      "èĮĤè´ŀ": 6463,
      "å¼ıèĬ®ç¿»": 6464,
      "ç¶Ŀ": 6465,
      "éį": 6466,
      "ä¹ĭå®ľ": 6467,
      "æĽ°åį¿": 6468,
      "äººçī©": 6469,
      "æľīå£°": 6470,
      "å¤§å¦Ĥ": 6471,
      "åįĹèĩ³": 6472,
      "çģĭ": 6473,
      "å±ŀåĽ½": 6474,
      "å»ºåĪĿ": 6475,
      "è£Ĵ": 6476,
      "åĽºè®©": 6477,
      "èµıç½ļ": 6478,
      "ç£¬": 6479,
      "ä¸įè¯Ĩ": 6480,
      "åĽ§": 6481,
      "çĶ¸": 6482,
      "çĻ¾å¹´": 6483,
      "ä¹īåħ´": 6484,
      "åī¥": 6485,
      "ä¸ĩæĪ·": 6486,
      "éŁ³æ³¨": 6487,
      "è±īç¿»": 6488,
      "çĩİ": 6489,
      "åĻ¨æ¢°": 6490,
      "èĭ±éĽĦ": 6491,
      "è®°å®¤åıĤåĨĽ": 6492,
      "ä¹ĭåĬĽ": 6493,
      "ç¥ī": 6494,
      "èĩªæ±ī": 6495,
      "æ¯«": 6496,
      "æŃ¤ä¸º": 6497,
      "æĺİä¹Ł": 6498,
      "éĩĳçŁ³": 6499,
      "èİ«æľī": 6500,
      "é¡¾è°ĵ": 6501,
      "ä¸įè§£": 6502,
      "æĽ°çİĭ": 6503,
      "åħ¶èĥ½": 6504,
      "èĩªè¨Ģ": 6505,
      "åı¯çŁ¥": 6506,
      "å¦Ĥåħ¶": 6507,
      "æ¬²æĿĢ": 6508,
      "æ®ĥ": 6509,
      "ä¸ĥåį·": 6510,
      "æ´Ĵ": 6511,
      "è±¨": 6512,
      "å¤ĸåħµ": 6513,
      "åł°": 6514,
      "éĦľ": 6515,
      "äºĶåįĥäºº": 6516,
      "é¾Łåħ¹": 6517,
      "åį¬": 6518,
      "ä»¥çĻ½": 6519,
      "ä¸įç«ĭ": 6520,
      "åĨ¡": 6521,
      "ä¹Łå¤«": 6522,
      "å¼ĩ": 6523,
      "å¤ªåħ¬": 6524,
      "ä»İå¿ĥ": 6525,
      "åħĥæĺ¾": 6526,
      "æľªå®ļ": 6527,
      "åīįåĨĽ": 6528,
      "å®¶å±ŀ": 6529,
      "å¿Ĺäºĳ": 6530,
      "ç¬Ľ": 6531,
      "å»ºå¨ģå°ĨåĨĽ": 6532,
      "åŃĹä¹Ł": 6533,
      "çİĩéªĳ": 6534,
      "é£İéĽ¨": 6535,
      "æŁ©": 6536,
      "æµİéĺ´": 6537,
      "èİ·åħ¶": 6538,
      "åĵĢå¸Ŀ": 6539,
      "èĨĤ": 6540,
      "æ¸¡æ±Ł": 6541,
      "éªģåĭĩ": 6542,
      "åĨ¢å®°": 6543,
      "æ´Ĺé©¬": 6544,
      "î°": 6545,
      "ä¸ºåħµ": 6546,
      "ä¸įéĹ®": 6547,
      "åĽĺ": 6548,
      "æĿ¯": 6549,
      "ä»İå¾ģ": 6550,
      "å¹³åįĹå°ĨåĨĽ": 6551,
      "å»ºå¹³": 6552,
      "æĻ¯æĺİ": 6553,
      "æ±Ĥæķĳ": 6554,
      "çĸ¾çĹħ": 6555,
      "åįģäºĮåį·": 6556,
      "å¦»ä¹ĭ": 6557,
      "åħ¨ä¹¦": 6558,
      "æĪİçĭĦ": 6559,
      "éĨ´": 6560,
      "æĺ¼è§ģ": 6561,
      "åĳĺå¤ĸéĥİ": 6562,
      "ä»¥è®¨": 6563,
      "ä¸ºå°Ĩ": 6564,
      "æľīåĲį": 6565,
      "å¤§èĢħ": 6566,
      "å¸Ŀéģ£": 6567,
      "è¥¿èĩ³": 6568,
      "å¤įä¸İ": 6569,
      "ä¹īåº·": 6570,
      "éĹ¨ä¹Ł": 6571,
      "å®¶ä¹ĭ": 6572,
      "è¿Ľåħµ": 6573,
      "æĹ§åĪ¶": 6574,
      "éļ¾ä»¥": 6575,
      "è®¡ç¿»": 6576,
      "æĤīä»¥": 6577,
      "çĽĳæľ¬": 6578,
      "åŃĺèĢħ": 6579,
      "åĮ¹å¤«": 6580,
      "æĭĴå®Ī": 6581,
      "åĲİéŃıç½®": 6582,
      "éħĭéķ¿": 6583,
      "ä¸įä¹Ĳ": 6584,
      "ä¸įä¿¡": 6585,
      "æľīæĺŁ": 6586,
      "éĢĿ": 6587,
      "ä½¿ä½¿": 6588,
      "ä»İåħ¶": 6589,
      "ä»İæīĭ": 6590,
      "æŃ¤çļĨ": 6591,
      "ä¸»ä¹ĭ": 6592,
      "æĬĢ": 6593,
      "å°ıåĦ¿": 6594,
      "åĢ¡": 6595,
      "å¨ģåĲį": 6596,
      "çĬ¹æľª": 6597,
      "é¸©": 6598,
      "ä¸īåįģå¹´": 6599,
      "æ¡Īæĸĩ": 6600,
      "éªĳå¥ĩå¯Ħç¿»": 6601,
      "ä»¥éĹ®": 6602,
      "ä¸ºåĨħ": 6603,
      "æīĢèİ·": 6604,
      "ä¿ŀ": 6605,
      "äºĶè°·": 6606,
      "çĸĹ": 6607,
      "åħ«äºº": 6608,
      "éĿŀæľī": 6609,
      "èĲ¨": 6610,
      "ä¼ļäºİ": 6611,
      "å¯»è¿ģ": 6612,
      "åĲķæ°ı": 6613,
      "éļĭå¼Ģçļĩ": 6614,
      "åºĵåħ¨ä¹¦": 6615,
      "ä¹ĭåıĬ": 6616,
      "ä¸ºåŃĲ": 6617,
      "ä¹Łèĭ¥": 6618,
      "èĢĮä¸İ": 6619,
      "å£«åº¶": 6620,
      "ä¹Ŀåįģ": 6621,
      "æĻĭå®ī": 6622,
      "èĽĬ": 6623,
      "åŃŁåº·æĽ°": 6624,
      "æĽ¾åŃĻ": 6625,
      "ãĢĢãĢĢãĢĢãĢĢ": 6626,
      "ä¼Ĭå°¹": 6627,
      "éĴ¦å®ļåĽĽ": 6628,
      "å§ļåħ´": 6629,
      "æ§Ľ": 6630,
      "æ»ĳåı°": 6631,
      "å¤Ļå¤ľ": 6632,
      "éĴ¦å®ļåĽĽåºĵåħ¨ä¹¦": 6633,
      "ä»¥ä¹¦": 6634,
      "ä¹Łè°ĵ": 6635,
      "å¤§çĲĨ": 6636,
      "å¸Ŀä¹ĭ": 6637,
      "å®īèĥ½": 6638,
      "çīĭ": 6639,
      "æľªå¿ħ": 6640,
      "å±ħä¸§": 6641,
      "å¤ªåŃĲèĪįäºº": 6642,
      "ä¹ĭå¿§": 6643,
      "åĪĭ": 6644,
      "èĢħè¨Ģ": 6645,
      "åĬ¹": 6646,
      "æľĪåľ¨": 6647,
      "åŁİéĺ³": 6648,
      "æ¸¤": 6649,
      "å¤įæľī": 6650,
      "çĽ´åĲĪ": 6651,
      "æĪĸäºĳ": 6652,
      "åł¡": 6653,
      "å®¹è²Į": 6654,
      "å¹²å½Ĵ": 6655,
      "ä¹ĭä½Ļ": 6656,
      "ä¹ĭä»ª": 6657,
      "ä¸įéĹ»": 6658,
      "çİĭå»º": 6659,
      "ç»¿": 6660,
      "æīĢé¢Ĩ": 6661,
      "ä¸Ĭå°Ĩ": 6662,
      "æĭ¨": 6663,
      "å®ĪèĬĤ": 6664,
      "éŃıå·ŀ": 6665,
      "èĤ¤": 6666,
      "æłİ": 6667,
      "å»ºä¹ī": 6668,
      "å°ıåĪĨ": 6669,
      "é»ĦéĴº": 6670,
      "éĩĳéĵ¶": 6671,
      "ä¼¯ä¹ĭ": 6672,
      "åı¸é©¬åħī": 6673,
      "æĩĭ": 6674,
      "ç¨½é¦ĸ": 6675,
      "æķ°åįģä¸ĩ": 6676,
      "çº²çºª": 6677,
      "ä¸ºæĸĩ": 6678,
      "æĸľ": 6679,
      "ä¸Ńä¸º": 6680,
      "å¤ªåĪĿ": 6681,
      "æīĢæī§": 6682,
      "æŃ¤äºº": 6683,
      "æ¢ħ": 6684,
      "åŃĿä¼¯": 6685,
      "æĶ»éĻ·": 6686,
      "èĥ¡ä¸īçľģ": 6687,
      "éģĩä¹ĭ": 6688,
      "èħĬ": 6689,
      "ä¹ĭè±¡ä¹Ł": 6690,
      "ä»¥éĢļ": 6691,
      "éĻģ": 6692,
      "åĨĽäºº": 6693,
      "æīĢè¿ĩ": 6694,
      "æĹłéģĹ": 6695,
      "åľ¨åīį": 6696,
      "ä½ľä¹Ĳ": 6697,
      "åĦģ": 6698,
      "éĹµå¸Ŀ": 6699,
      "ä¹ĭçī©": 6700,
      "ä¸ºæŃ¦": 6701,
      "åĪł": 6702,
      "çļĤ": 6703,
      "ä¸Ģä¸Ī": 6704,
      "éļĺ": 6705,
      "æ¸Ŀ": 6706,
      "æĪĲè´¥": 6707,
      "ç¤¼ä¹ī": 6708,
      "å½ĴåĽ½": 6709,
      "ç§°èĩ£": 6710,
      "å¾ģåĮĹ": 6711,
      "æ¯įå¼Ł": 6712,
      "çĩ®": 6713,
      "åıĶä¸ļ": 6714,
      "ä¼ıåħµ": 6715,
      "è¡ŀå¤§å°ĨåĨĽ": 6716,
      "è¹Ļ": 6717,
      "ä»¥èĩ³": 6718,
      "ä¸ºåĲĽ": 6719,
      "ä¹ŁèĢĮ": 6720,
      "ä½¿çİĭ": 6721,
      "è¨ĢèĢħ": 6722,
      "åħĥæµ·": 6723,
      "åĭ£": 6724,
      "æĮ½": 6725,
      "å·²æŃ»": 6726,
      "åİ»å®ĺ": 6727,
      "æĽ´çĽ¸": 6728,
      "éĵĦ": 6729,
      "åħļä¸İ": 6730,
      "çĵī": 6731,
      "æ¿¡": 6732,
      "åĩłå±ħ": 6733,
      "èī°éļ¾": 6734,
      "è´½": 6735,
      "ç»ľ": 6736,
      "ç§ĥ": 6737,
      "å¤©çİĭ": 6738,
      "æĸĩä¹¦": 6739,
      "æĸĩå¾·": 6740,
      "è¡Įäºº": 6741,
      "å¾Ĺä»¥": 6742,
      "çīĤ": 6743,
      "æĬ½": 6744,
      "å¹¿æŃ¦": 6745,
      "çłĶ": 6746,
      "èĶ¬": 6747,
      "è¯¸ä¾¯çİĭ": 6748,
      "ä¼ĳä¹ĭ": 6749,
      "åĬ³åĬĽ": 6750,
      "è²Ĥ": 6751,
      "è¶£ä¸ĥåĸ»ç¿»": 6752,
      "æ§ĥ": 6753,
      "î±": 6754,
      "åŃĲäºĳ": 6755,
      "ä¼½": 6756,
      "å¤§è¡Įåı°": 6757,
      "èµĢ": 6758,
      "æĻ§": 6759,
      "ä¹ĥåı¬": 6760,
      "è°ĵä¸º": 6761,
      "æłĭ": 6762,
      "è¿ģäºİ": 6763,
      "åĸĦäºİ": 6764,
      "åĲĦä¸Ģ": 6765,
      "åįİå·ŀ": 6766,
      "æŀĹéĤĳ": 6767,
      "å·¦åı³æĽ°": 6768,
      "æºī": 6769,
      "çĹħåįĴ": 6770,
      "æ¯Ľè¯Ĺ": 6771,
      "ä¸ºå¤ªåĤħ": 6772,
      "èĢĮè¥¿": 6773,
      "å¤ªåºľ": 6774,
      "äºĮå¯¸": 6775,
      "ç¥ĩ": 6776,
      "ç¥İ": 6777,
      "ç¥Ķ": 6778,
      "ä¸ĥä¸ĩ": 6779,
      "èİŀ": 6780,
      "æĻĭåħ¬": 6781,
      "ä¸¾ç§Ģæīį": 6782,
      "åĲ´äºº": 6783,
      "æµİæ²³": 6784,
      "æ¸¸åĩ»": 6785,
      "é¡¿é¦ĸ": 6786,
      "çŃĳåŁİ": 6787,
      "å¯Ŀçĸ¾": 6788,
      "æŃ¥åħµæł¡å°ī": 6789,
      "ä¸ºéķ¿": 6790,
      "çİĭä¾¯": 6791,
      "èĩ³ç¿»": 6792,
      "æĹłæķħ": 6793,
      "ä¸ľå¤§å°ĨåĨĽ": 6794,
      "çĽ¸åºĶ": 6795,
      "ç«ĭçļĩåŃĲ": 6796,
      "å½ĵæŃ»": 6797,
      "å°ĳå¹´": 6798,
      "åĲıå£«": 6799,
      "äºĮåįģä¸ī": 6800,
      "æĹ§ä¼ł": 6801,
      "èİ«éĻĪ": 6802,
      "çģµå¸Ŀ": 6803,
      "éºĭ": 6804,
      "è±ªæĿ°": 6805,
      "é³ŀ": 6806,
      "è¸ª": 6807,
      "æ¶¿éĥ¡": 6808,
      "å¹Ħ": 6809,
      "æĺł": 6810,
      "èĢĮå¾Ĺ": 6811,
      "å¤§åĮł": 6812,
      "å°Ĩæľī": 6813,
      "åįĹåħĸå·ŀåĪºåı²": 6814,
      "åİ¿ä¼¯": 6815,
      "é©¬èŀį": 6816,
      "ä¸ĥéĩĮ": 6817,
      "åīįé©±": 6818,
      "ç¨»": 6819,
      "éĩĳå¸Ľ": 6820,
      "çĥ½": 6821,
      "åľ£äººä¹ĭ": 6822,
      "èī¯ä¹ħ": 6823,
      "ç¿»åıĪéŁ³": 6824,
      "éļ°": 6825,
      "åŁİå¤ĸ": 6826,
      "æ¯ĵ": 6827,
      "å¹³åĩī": 6828,
      "èĩ£åŃĲ": 6829,
      "çļĩå¤©": 6830,
      "çļĩå¼Ł": 6831,
      "å·¦è¡ŀå°ĨåĨĽ": 6832,
      "å¹¶åĬĽ": 6833,
      "çĶļçĽĽ": 6834,
      "åĩ»çł´": 6835,
      "æĺĮéĤĳ": 6836,
      "ç»Īå§ĭ": 6837,
      "èĩ³äºİæŃ¤": 6838,
      "çıŃå¸Ī": 6839,
      "æĨİ": 6840,
      "æ¸Ķéĺ³": 6841,
      "éĥ½å®ĺå°ļä¹¦": 6842,
      "æ¹ĺä¸ľçİĭ": 6843,
      "ä¸įæļĩ": 6844,
      "ä¹¦ä¹ĭ": 6845,
      "çĦķ": 6846,
      "åİ¿åŃĲ": 6847,
      "åĪĻæĺ¯": 6848,
      "å®Īå¼ıåıĪç¿»": 6849,
      "ç¥ĸçĪ¶": 6850,
      "è¿ĺéĥ½": 6851,
      "åį³ä»¥": 6852,
      "éĻµä¾¯": 6853,
      "å¤ıåı£": 6854,
      "å¿łä¹ī": 6855,
      "æµİéļĤ": 6856,
      "åħ¼ä¾įä¸Ń": 6857,
      "å®³ä¹ĭ": 6858,
      "çİºç»¶": 6859,
      "å¬´": 6860,
      "é´ĪéĹ¨": 6861,
      "äľ": 6862,
      "ä»¥ä¹ī": 6863,
      "ä»¥ä¾Ľ": 6864,
      "ä¸įçĸĳ": 6865,
      "åĨ»": 6866,
      "æĪ¢": 6867,
      "çĽĨ": 6868,
      "æĿŃ": 6869,
      "è¨¾": 6870,
      "çĽ¸æľĽ": 6871,
      "è°ĵäººæĽ°": 6872,
      "éĻĪå¹³": 6873,
      "çİĩåħµ": 6874,
      "ç«łåı¥": 6875,
      "å¤Ħä¹ĭ": 6876,
      "éĢĢä¿Ŀ": 6877,
      "åĮ¹å¦Ļ": 6878,
      "ç«Łä¸į": 6879,
      "ç«ŁéĻµçİĭ": 6880,
      "éľįåħī": 6881,
      "ä¹ĭæľĽ": 6882,
      "å®µ": 6883,
      "ä¸įæķ¬": 6884,
      "æīĢè§ģ": 6885,
      "ä¸īå¯¸": 6886,
      "ä¹¦è®°": 6887,
      "æķħä¸º": 6888,
      "å¹³åĮĹå°ĨåĨĽ": 6889,
      "è§ģæĿĢ": 6890,
      "æ±īä½¿": 6891,
      "æ°ĳéĹ´": 6892,
      "å¾Ĳåħĸ": 6893,
      "å½ĹæĺŁ": 6894,
      "î¢ĺ": 6895,
      "å¹¢": 6896,
      "èĢĮæ¬²": 6897,
      "æľīçĻ½": 6898,
      "å¤ªçī¢": 6899,
      "è¾ĥ": 6900,
      "æĹ¶äºĭ": 6901,
      "è¯¸åİ¿": 6902,
      "å®ĺæľī": 6903,
      "ä½Ļå®¶": 6904,
      "å½ĵæĺ¯": 6905,
      "å°ıåŃĲ": 6906,
      "ç¼¢": 6907,
      "æľĶæĹ¥æľīé£Łä¹ĭ": 6908,
      "åĴ¸å®ģ": 6909,
      "ãĢĭãĢģ": 6910,
      "èĸĽåı²": 6911,
      "åįģæľīäºĮæľĪ": 6912,
      "åĲģ": 6913,
      "ä»¥å®ļ": 6914,
      "éĻĮ": 6915,
      "ä¾Ķ": 6916,
      "é©³": 6917,
      "çĻ¾äºº": 6918,
      "çļĨå±ŀ": 6919,
      "çº¢": 6920,
      "é«ĺé¢İ": 6921,
      "èĻ½å¤į": 6922,
      "çı£": 6923,
      "è¦ĩ": 6924,
      "çĽĸä»¥": 6925,
      "å°±åĽ½": 6926,
      "åŃ£åŃĻ": 6927,
      "å¾ħè¯ı": 6928,
      "ç¡®": 6929,
      "æ½¼åħ³": 6930,
      "åĲŁ": 6931,
      "ä¸ºä½¿æĮģèĬĤ": 6932,
      "å¾Ń": 6933,
      "åħ¶åĬ¿": 6934,
      "èĢĮäº¡": 6935,
      "æ±§": 6936,
      "æĹłæŃ¤": 6937,
      "çĻ¾æµİ": 6938,
      "èİ¹": 6939,
      "çģ°": 6940,
      "å¤ļæľī": 6941,
      "éħº": 6942,
      "é»Ħå·¾": 6943,
      "èµĲå§ĵ": 6944,
      "åĲ´è¶Ĭ": 6945,
      "æĪ·åı£": 6946,
      "æľĽé£İ": 6947,
      "åĽĽåįģåħ«": 6948,
      "æĭĴæĪĺ": 6949,
      "ä¹ĭäº²": 6950,
      "ä»¥æŃ£": 6951,
      "ä¸ºå¤©åŃĲ": 6952,
      "èĻ¬": 6953,
      "è½¶": 6954,
      "å½ĵä¹ĭ": 6955,
      "æĻĭä¹ĭ": 6956,
      "åħīå¼¼": 6957,
      "é¦Ķ": 6958,
      "ç²¥": 6959,
      "è´¥äºİ": 6960,
      "çªŁ": 6961,
      "çīĽç¾Ĭ": 6962,
      "ç²¾éªĳ": 6963,
      "å·´éĻµ": 6964,
      "åĭĥåĭĥ": 6965,
      "ç³¸": 6966,
      "ĊĊ": 6967,
      "ä¸įä»¥ä¸º": 6968,
      "ä¸įæĺĵ": 6969,
      "åħ¶æĹ¥": 6970,
      "åħ¶æ¬¡": 6971,
      "èĢĮæľª": 6972,
      "æľīè¯Ĩ": 6973,
      "ä¸Ĭéģ£": 6974,
      "èĩ³å¾·": 6975,
      "åįĹå®«": 6976,
      "ä¸ľéĹ¨": 6977,
      "æ¸´": 6978,
      "å»ºåħ´": 6979,
      "æľ¬æ±ī": 6980,
      "é¦ĳ": 6981,
      "å¤ıå·ŀ": 6982,
      "å¥īè½¦": 6983,
      "ä¹¡äºº": 6984,
      "äºĮåįĥæĪ·": 6985,
      "å°Ĩåĩº": 6986,
      "ç»ĸ": 6987,
      "æŃ¦å¾·": 6988,
      "å®īéĻĨ": 6989,
      "å°ĳæĹ¶": 6990,
      "çĮĿ": 6991,
      "å®ľéĥ½": 6992,
      "éķĩåįĹå°ĨåĨĽ": 6993,
      "è£¨": 6994,
      "æĺŃä¹ī": 6995,
      "çĩĶ": 6996,
      "åħ³ä¸ľ": 6997,
      "å¤ªåı²ä»¤": 6998,
      "îľ°": 6999,
      "ä»¥æķħ": 7000,
      "çİļ": 7001,
      "çļĭ": 7002,
      "å¸Ŀäº²": 7003,
      "å¸Ŀçİĭä¹ĭ": 7004,
      "çĶŁä¹Ł": 7005,
      "å»ºå¾³": 7006,
      "å°ĳèĢĮ": 7007,
      "æį¶": 7008,
      "ç²¹": 7009,
      "ç¼µ": 7010,
      "å¹²æĪĪ": 7011,
      "åįģä¸Ģåį·": 7012,
      "åİĨä½į": 7013,
      "è¿ŀçĲĨ": 7014,
      "è°¢æĽ°": 7015,
      "åıĤåĨĽäºĭ": 7016,
      "èĲ§ä½ķ": 7017,
      "éĩİçİĭ": 7018,
      "ç¢Ľ": 7019,
      "ä¹ĭæĺİ": 7020,
      "äººäºİ": 7021,
      "çİĭåħĥ": 7022,
      "åľĹ": 7023,
      "ä¸ĬéĤ½": 7024,
      "é©»": 7025,
      "æĸĩçļĩå¸Ŀ": 7026,
      "æľªæĭľ": 7027,
      "ä½Ļå¹´": 7028,
      "èģ¿": 7029,
      "èĭ¥æĽ°": 7030,
      "çĪ¶èĢģ": 7031,
      "æ¢ģåĽ½": 7032,
      "å®ľéĺ³": 7033,
      "éĥ¨éĥİ": 7034,
      "æĸ°åħ´": 7035,
      "èİ«çŁ¥": 7036,
      "æŀĹæĽ°": 7037,
      "åįļéĻµ": 7038,
      "çīĽé©¬": 7039,
      "å°Ĩåį³äº®ç¿»ä¸ĭåĲĮ": 7040,
      "ç£¨": 7041,
      "æĥľä¹ĭ": 7042,
      "ä¹ĭæĶ¿": 7043,
      "ä¹ĭä¼ļ": 7044,
      "åĨĽåºľ": 7045,
      "æĹłæķ¢": 7046,
      "æģ³": 7047,
      "ç½¹": 7048,
      "æ±īæŃ¦å¸Ŀ": 7049,
      "å²ĺ": 7050,
      "å°ļä¹ĭ": 7051,
      "äº¦ä½ķ": 7052,
      "é»¥": 7053,
      "æĿ¥èĢħ": 7054,
      "å´§": 7055,
      "éĩĳéĻµ": 7056,
      "äºĮåįģäºĮå¹´": 7057,
      "æĦıä¹Ł": 7058,
      "å¾³è£ķ": 7059,
      "çĮ®åħ¬": 7060,
      "æ±Ŀéĺ´": 7061,
      "çĸĳä¹ĭ": 7062,
      "çī§å®Ī": 7063,
      "åħīç¦Ħåĭ²": 7064,
      "ð¬Ģ": 7065,
      "å¾ģè¥¿å¤§å°ĨåĨĽ": 7066,
      "èĢĮèµ·": 7067,
      "å¤§è±¡": 7068,
      "ä¸īèĢģ": 7069,
      "åĽ½åı²": 7070,
      "å±±æµ·": 7071,
      "æĺİçŁ£": 7072,
      "è¿Ľè´¤": 7073,
      "æł¢": 7074,
      "å¿Ĺåľ¨": 7075,
      "éĴĬ": 7076,
      "åĴĮä¸Ń": 7077,
      "è¿ĩäºº": 7078,
      "æŀĹç¿»": 7079,
      "æĺ¾å®Ĺ": 7080,
      "ä¸¹æĿ¨": 7081,
      "ä¼ĳä»ģ": 7082,
      "çĤ³": 7083,
      "äºĮåįĥäºº": 7084,
      "åĽŀçº¥": 7085,
      "æħ°åĬ³": 7086,
      "å¤ªåı²åħ¬": 7087,
      "éĽ¶éĻµ": 7088,
      "éĺ¿éĤ£çĵĮ": 7089,
      "åĬ³åĬĽåĪ°ç¿»": 7090,
      "ä»ĳ": 7091,
      "ä¸ºæ±ī": 7092,
      "çİĭæŃ£æľĪ": 7093,
      "æ±ª": 7094,
      "åŁİéĤĳ": 7095,
      "ä»ĬèĢħ": 7096,
      "èīĺ": 7097,
      "åıįåıĽ": 7098,
      "ç¼£": 7099,
      "è®®ä¹ĭ": 7100,
      "æµģæ°ĳ": 7101,
      "æī§ä¹ĭ": 7102,
      "åı¬è§ģ": 7103,
      "ä¸īåįģåį·": 7104,
      "å¼ĥå¸Ĥ": 7105,
      "é¡»èĩ¾": 7106,
      "åºĦå®Ĺ": 7107,
      "æ¡Ĥéĺ³": 7108,
      "è»Ĭ": 7109,
      "åĮ¹å¦Ļç¿»": 7110,
      "ð¬Ģ©": 7111,
      "äºİå¸Ŀ": 7112,
      "ä¸Ĭå¹¸": 7113,
      "åŁİéĻ·": 7114,
      "å¦ĤæĻĭ": 7115,
      "åħ¥ä¾į": 7116,
      "éŃıä¹¦": 7117,
      "èĪĤ": 7118,
      "äº²å±ŀ": 7119,
      "éĶģ": 7120,
      "ä»²æĸĩ": 7121,
      "æº¥": 7122,
      "éŁ©éŃı": 7123,
      "éŀį": 7124,
      "ä¸īçĻ¾éĩĮ": 7125,
      "æ¹ĺå·ŀ": 7126,
      "éķ¿æ²Ļçİĭ": 7127,
      "æĻĭçģ¼æĽ°": 7128,
      "ä¹ĭè¯Ľ": 7129,
      "ä¸ºåħĪ": 7130,
      "å·©": 7131,
      "åĽ½äºĭ": 7132,
      "ä»İè¨Ģ": 7133,
      "åľ¨æľĿ": 7134,
      "åı³è¡ŀå°ĨåĨĽ": 7135,
      "æĻ¯åħ¬": 7136,
      "èµĲéĴ±": 7137,
      "èºģ": 7138,
      "å¥īè¿İ": 7139,
      "åł¤": 7140,
      "å¯»ä¸º": 7141,
      "æıº": 7142,
      "å§Ķä»»": 7143,
      "é³ı": 7144,
      "åı²è®°æĽ°": 7145,
      "î®İ": 7146,
      "æ½ŀå·ŀ": 7147,
      "ä¸ºåīįéĶĭ": 7148,
      "èĢĮçİĭ": 7149,
      "å¤§é©¾": 7150,
      "åİĦ": 7151,
      "èĩªä½Ļ": 7152,
      "åıĬå¸Ŀ": 7153,
      "å°ĨåĨĽå¦Ĥæķħ": 7154,
      "åīįä»£": 7155,
      "å°ģä¾¯": 7156,
      "ä¹Ĳæµª": 7157,
      "æĢĿä¹ĭ": 7158,
      "èįĨåįĹ": 7159,
      "ç»įå®Ĺ": 7160,
      "éĢºè¿ĳ": 7161,
      "æĶĢ": 7162,
      "å®īè½¦": 7163,
      "å®īä¸°": 7164,
      "å¹³è¥¿å°ĨåĨĽ": 7165,
      "ä¹īæģŃ": 7166,
      "ä½ķè°ĵ": 7167,
      "åĭħ": 7168,
      "èĪ¬": 7169,
      "ç«ĭä¹ĭ": 7170,
      "åĿŀ": 7171,
      "ä¹Ŀåĵģ": 7172,
      "é«ĺè½¦": 7173,
      "æļ¾": 7174,
      "éĥĳçİĦ": 7175,
      "åķľ": 7176,
      "è°¢ç½ª": 7177,
      "çĴľ": 7178,
      "ä¸īçĻ¾æĪ·": 7179,
      "ç§ĺä¹¦éĥİ": 7180,
      "èĵĿçĶ°": 7181,
      "ä¹ĭåŃĻ": 7182,
      "ä¸ºæŃ¤": 7183,
      "ä¸ºçļĩå¤ªåŃĲ": 7184,
      "ä¹Łå¸Īåı¤æĽ°": 7185,
      "éĥĿ": 7186,
      "å¸Ŀä¹ĥ": 7187,
      "ä¸Ĭä¹ĥ": 7188,
      "ä»İå¥³": 7189,
      "ä»İç³¸": 7190,
      "æķħåħ¶": 7191,
      "çī¡": 7192,
      "å±±ä¸Ń": 7193,
      "åº¦æ²³": 7194,
      "åĪĺè¡¨": 7195,
      "åĪĺæŃĨ": 7196,
      "åĴĮå¸Ŀ": 7197,
      "æ»Ĥ": 7198,
      "æľĽè§ģ": 7199,
      "éĥ½çĿ£ä¸Ńå¤ĸ": 7200,
      "éĢĢèµ°": 7201,
      "éĽħæĽ°": 7202,
      "ç¯Ĩ": 7203,
      "åħ°éĻµ": 7204,
      "å¸ħè¯»æĽ°çİĩä¸ĭåĲĮ": 7205,
      "ä¹ĭä»İ": 7206,
      "ä¹ĭä½ķ": 7207,
      "éĺĨ": 7208,
      "å¤§ä¼Ĺ": 7209,
      "åĨĽè´¥": 7210,
      "æīĢç§°": 7211,
      "åĲİä¸İ": 7212,
      "å®īè¥¿å°ĨåĨĽ": 7213,
      "çĦ¯": 7214,
      "åİ¿å®ĺ": 7215,
      "ç¦º": 7216,
      "åĮĹå®«": 7217,
      "éģĵè¡Įåı°": 7218,
      "æľªæĺĵ": 7219,
      "ä¹īåħµ": 7220,
      "çŃīæĽ°": 7221,
      "éĥ½ç»Ł": 7222,
      "ä¸ĥå°º": 7223,
      "åĿĳ": 7224,
      "åĵ¥": 7225,
      "åĪĨä¹ĭ": 7226,
      "æľĶå·ŀ": 7227,
      "åįģä½Ļå¹´": 7228,
      "ä¹ĭè°ĵä¹Ł": 7229,
      "éĦ¯åĸĦ": 7230,
      "æ¸¤æµ·": 7231,
      "äºİéķ¿å®ī": 7232,
      "èĢĮæĽ´": 7233,
      "æīĢåĲĳ": 7234,
      "äºĭæĹł": 7235,
      "èĤĿ": 7236,
      "çĶ²åħµ": 7237,
      "å¡ŀæĤī": 7238,
      "èģªæķı": 7239,
      "ä¹ĭæĤ£": 7240,
      "ä¸ºåı¸": 7241,
      "å¸½": 7242,
      "äºİäº¬å¸Ī": 7243,
      "åħ¬äºĭ": 7244,
      "åįĹæĸĹ": 7245,
      "çĦĺ": 7246,
      "ä½ķèĢħ": 7247,
      "ä¸ĩä¸ĸ": 7248,
      "è¡¨éĩĮ": 7249,
      "åĲĦä»¥": 7250,
      "è´£ä¹ĭ": 7251,
      "æħķå®¹åŀĤ": 7252,
      "åħ¢": 7253,
      "äºİæ¥ļ": 7254,
      "åħ¶è¡Į": 7255,
      "å¼Ī": 7256,
      "èĢĮæ°ĳ": 7257,
      "è§ŀ": 7258,
      "å¤ªå®ĺ": 7259,
      "å¦ĵ": 7260,
      "å®īåį±": 7261,
      "åĪĻç¿»": 7262,
      "éŃıä»¥": 7263,
      "éŃıå¸Ŀ": 7264,
      "ç¤¼ç¿»": 7265,
      "æ°ıæĽ°": 7266,
      "æľ¬æĹł": 7267,
      "åŃĹåıĶ": 7268,
      "äºĮåįģåĽĽå¹´": 7269,
      "åĪ¶ä¹Ł": 7270,
      "æĢĿæĶ¿": 7271,
      "åħĥå¹´æĺ¥æŃ£æľĪ": 7272,
      "åĽŀé¹ĺ": 7273,
      "ä¸ĥåįģéĩĮ": 7274,
      "éĬ®": 7275,
      "ä¹ĭå¼Łä¹Ł": 7276,
      "çİĭçĲ³": 7277,
      "æĸĲ": 7278,
      "å¥¥": 7279,
      "å¸Ŀä½į": 7280,
      "ä¸İåĲĮ": 7281,
      "ä¸İè¯Ń": 7282,
      "è§ģäº²": 7283,
      "æ²³æ°´": 7284,
      "è¢ĸ": 7285,
      "åħīæĽ°": 7286,
      "ä»¥ä¸ºä¸įåı¯": 7287,
      "è½¦æľį": 7288,
      "å¨¥": 7289,
      "çĻ½æ°´": 7290,
      "æ²»ä¸Ń": 7291,
      "æĹ§åħ¸": 7292,
      "åľ£å¾·": 7293,
      "è¥ĦåĽ½": 7294,
      "é¹¤": 7295,
      "åĵĢåħ¬": 7296,
      "æĪįä¸»": 7297,
      "çĽĲéĵģ": 7298,
      "çİºä¹¦": 7299,
      "éģģèµ°": 7300,
      "ãĢĭãĢģãĢĬ": 7301,
      "îı": 7302,
      "ä¸įæĹ¶": 7303,
      "æĿ¼": 7304,
      "ä¸Ńéģĵ": 7305,
      "æīĢä½ľ": 7306,
      "ä¸ĢåĪĩ": 7307,
      "ä»İå®ĺ": 7308,
      "éª¥": 7309,
      "éĩĳå¢ī": 7310,
      "ä¼¯çİī": 7311,
      "å®ĭäºº": 7312,
      "ä¸įåı¯å¤į": 7313,
      "åįķéªĳ": 7314,
      "éĦ£": 7315,
      "åŃŁåŃĲ": 7316,
      "å¤ºåħ¶": 7317,
      "æŁĶçĦ¶": 7318,
      "æİĸåºŃ": 7319,
      "ä»¥ä»İ": 7320,
      "ä»¥åĲį": 7321,
      "æĸĩæĪĲ": 7322,
      "æŃ¤éĿŀ": 7323,
      "å»¹": 7324,
      "éģĵå£«": 7325,
      "éģĤä½¿": 7326,
      "çľĩ": 7327,
      "åĪĺæ¯ħ": 7328,
      "å§ĭä¹Ł": 7329,
      "åĬŁåĲį": 7330,
      "éĴĵ": 7331,
      "å¥īä½¿": 7332,
      "ä¹ĺé©¬": 7333,
      "åľ£æľĿ": 7334,
      "éģĹè¯ı": 7335,
      "æķĻæİĪ": 7336,
      "åĿļå®Ī": 7337,
      "éľ¸åħĪ": 7338,
      "å·¨é¹¿": 7339,
      "ä¸ºå¯ĩ": 7340,
      "åĪ¼": 7341,
      "æīĢå¥ı": 7342,
      "åĲİå°ĨåĨĽ": 7343,
      "ä¹¦å¥ı": 7344,
      "åįĹå¾ģ": 7345,
      "å£ĳ": 7346,
      "æķħäºº": 7347,
      "è¥¿äº¬": 7348,
      "æĦ¼": 7349,
      "ä¿¡ä¹Ł": 7350,
      "å¤±ä¹Ł": 7351,
      "åºŁç«ĭ": 7352,
      "ç©Ĩåħ¬": 7353,
      "âĹĩ": 7354,
      "åº¦æĶ¯å°ļä¹¦": 7355,
      "ä¹ĭæľĪ": 7356,
      "ä»¥åıĸ": 7357,
      "åŃĲå¦Ĥ": 7358,
      "èĢħè°ĵä¹ĭ": 7359,
      "ä¸İæĿİ": 7360,
      "äºĶæĽ°": 7361,
      "éĽĮ": 7362,
      "åħĥå¾½": 7363,
      "å¾Ĺå¿Ĺ": 7364,
      "é¢ĵ": 7365,
      "æľªæķ¢": 7366,
      "çŃīä¸º": 7367,
      "æĪĺåĬŁ": 7368,
      "æĻ¯ä»ģ": 7369,
      "å°½å¿ł": 7370,
      "çĮ®çĻ½": 7371,
      "è¿ĳåħ¶": 7372,
      "ä»¥å¾ħä¹ĭ": 7373,
      "å§ĭåħ´çİĭ": 7374,
      "ä¹ĭç§°": 7375,
      "ä¹ĭèµĦ": 7376,
      "äºİéĻĪ": 7377,
      "åħ¶å¤ĸ": 7378,
      "çİĭå»¶": 7379,
      "å¤§åĽ½": 7380,
      "å¤§ä¸¾": 7381,
      "ä¸ŃåĨĽå°ĨåĨĽ": 7382,
      "æĸĩä¾¯": 7383,
      "é«ĺéĺ³": 7384,
      "æ¢Ĺ": 7385,
      "æ¶Į": 7386,
      "ç½ªäºº": 7387,
      "å¤ªåŃĲè©¹äºĭ": 7388,
      "éģĹäºİ": 7389,
      "ä¸įåĬł": 7390,
      "åħ¶åľ¨": 7391,
      "åĨĽè¿ĺ": 7392,
      "æīĢèĥ½": 7393,
      "éķĤ": 7394,
      "éĿ£": 7395,
      "åĽĽåĵģ": 7396,
      "èĩ£ä¹Ł": 7397,
      "çº®": 7398,
      "ç¬¼": 7399,
      "å¼łä»ª": 7400,
      "åŃĿå»º": 7401,
      "å¤ªåŃĲä¸Ńåº¶åŃĲ": 7402,
      "æĺ¾è¾¾": 7403,
      "è¢«è¯Ľ": 7404,
      "éļĨä¹ĭ": 7405,
      "å´Ķåħī": 7406,
      "æĲı": 7407,
      "è©§": 7408,
      "æŃ©éªĳ": 7409,
      "æŀ¹ç½ķ": 7410,
      "åįµ": 7411,
      "æĹ»": 7412,
      "ä¸įæŃ¢": 7413,
      "åĽ¿": 7414,
      "åħ¶ä»¥": 7415,
      "äººå£«": 7416,
      "å¤§å¤ı": 7417,
      "ä¸Ńå¤§": 7418,
      "éĢ¡": 7419,
      "åĲİäºº": 7420,
      "ä¸ĬæŀĹ": 7421,
      "æĹ¥é£Ł": 7422,
      "åİ¿åľ¨": 7423,
      "å¤įåħ¶": 7424,
      "æ®ģ": 7425,
      "å±ħäºİ": 7426,
      "å¿ħä»¥": 7427,
      "æľįéĺķ": 7428,
      "æµģè¡Ģ": 7429,
      "æ¹Ł": 7430,
      "åľ£æĺİ": 7431,
      "æĬļä¹ĭ": 7432,
      "æĢ¨æľĽ": 7433,
      "éŀ®": 7434,
      "æĲĨ": 7435,
      "å¶²": 7436,
      "ä¸ºæ°ĳ": 7437,
      "ä¸ºè´¨": 7438,
      "åĨĹ": 7439,
      "å¸ľ": 7440,
      "äººä¼¦": 7441,
      "æĪŁ": 7442,
      "æīĢèĩ³": 7443,
      "è¾Ķ": 7444,
      "æ²¿": 7445,
      "ä¸ľåºľ": 7446,
      "åıĪä»İ": 7447,
      "æŃ¤äº¦": 7448,
      "ä»¤åħ¶": 7449,
      "æ¸¥": 7450,
      "é¢Ŀ": 7451,
      "æ°´ä¸Ĭ": 7452,
      "ä¾įè¯»": 7453,
      "åı³åħīç¦Ħå¤§å¤«": 7454,
      "å¿ħåħĪ": 7455,
      "æįį": 7456,
      "çĥĤ": 7457,
      "ä¸īå¹´æĺ¥æŃ£æľĪ": 7458,
      "ä»²ç¿»": 7459,
      "åĴ¸åº·": 7460,
      "èĻİçī¢": 7461,
      "ç´¢éļĲæ¡Ī": 7462,
      "è½¦é©¾è¿ĺå®«": 7463,
      "è§Ĥå¯Łä½¿": 7464,
      "éĲ": 7465,
      "ä¹ĭè¦ģ": 7466,
      "åħ¶åı¯": 7467,
      "ä¼ģ": 7468,
      "ä¸Ģä¸¾": 7469,
      "åĽĽåįģäºĮ": 7470,
      "å®īä¸ĸ": 7471,
      "çīº": 7472,
      "ç¾¯": 7473,
      "äº¦å¦Ĥä¹ĭ": 7474,
      "åĪĨéģ£": 7475,
      "çĬ¹åľ¨": 7476,
      "èķ¤": 7477,
      "è¢ģæľ¯": 7478,
      "å¥ĩä¹ĭ": 7479,
      "é¢Ľé¡¼": 7480,
      "æ¸¸åĩ»å°ĨåĨĽ": 7481,
      "åıŁ": 7482,
      "ä¸ºç§¦": 7483,
      "äºİå¸Ĥ": 7484,
      "éĺ¯": 7485,
      "å°ĨæĿ¥": 7486,
      "éĢĴ": 7487,
      "ç¥ı": 7488,
      "èĩ³èĢħ": 7489,
      "ä¸İè¯¸": 7490,
      "æģ»": 7491,
      "ä¿İ": 7492,
      "æ³ª": 7493,
      "åĪĻæĹł": 7494,
      "æľªè¯¦": 7495,
      "ä¾¯èİ«éĻĪ": 7496,
      "åįĥçŁ³": 7497,
      "æŃ»èĢĮ": 7498,
      "åŃĿæĺŃ": 7499,
      "å¹¿å·Ŀ": 7500,
      "é¢Ĩåħµ": 7501,
      "æ¼Ĥ": 7502,
      "æĤ¦ä¹ĭ": 7503,
      "å½¢åĬ¿": 7504,
      "å¤©åľ°ä¹ĭ": 7505,
      "çİĭä¹īæģŃ": 7506,
      "å¡ŀæĤīåĪĻç¿»": 7507,
      "î¶": 7508,
      "ðª": 7509,
      "ä¸Ľ": 7510,
      "æĽ©": 7511,
      "æĹĥ": 7512,
      "æľīèĥ½": 7513,
      "çİĭåĥ§è¾©": 7514,
      "æĸ¼": 7515,
      "åľ¨è¥¿": 7516,
      "æķħå¾Ĺ": 7517,
      "æŃ¦åħ´": 7518,
      "è¥¿å¾ģ": 7519,
      "åħŃå°º": 7520,
      "èī³": 7521,
      "èĳĨ": 7522,
      "çĮª": 7523,
      "å¾ģä¸ľå°ĨåĨĽ": 7524,
      "æĪĺå£«": 7525,
      "æĺŁåľ¨": 7526,
      "å»¶åħī": 7527,
      "åĽĽåįģä¹Ŀ": 7528,
      "å°¤çĶļ": 7529,
      "îĺł": 7530,
      "ä¹ĭæĹł": 7531,
      "ä»¥å¨ģ": 7532,
      "ä¸įçµ¶": 7533,
      "æĽ°å¤«": 7534,
      "åħ¶é¦ĸ": 7535,
      "ä¸Ĭä¹¦æĽ°": 7536,
      "æľĪä»¤": 7537,
      "éĺ³ä»¤": 7538,
      "ä¸ľä¸ĭ": 7539,
      "èĭĸ": 7540,
      "åĽĽéĥ¡": 7541,
      "æĭĬ": 7542,
      "ä¸ĥäºº": 7543,
      "é«ĺæĺĮ": 7544,
      "åŃĹåŃ£": 7545,
      "åº·å±ħ": 7546,
      "éĿĴé¾Ļ": 7547,
      "ä¿®ä¹ĭ": 7548,
      "åħ³è¥¿": 7549,
      "åįĩæĺİ": 7550,
      "å½¢äºİ": 7551,
      "éŀ¬": 7552,
      "å·´éĥ¡": 7553,
      "ä¹ŀä¼ı": 7554,
      "éĿ³ç¿»": 7555,
      "æĺĵä»¥è±īç¿»": 7556,
      "èĢĮå¤©ä¸ĭ": 7557,
      "èĢĮèµ°": 7558,
      "å¯ĺ": 7559,
      "åıĪäºİ": 7560,
      "æŃ¦åħ¬": 7561,
      "åıĬäºİ": 7562,
      "ä¹ĥèĩ³": 7563,
      "æĹ¥ä¹Ł": 7564,
      "éŃıæĻĭ": 7565,
      "æ²³æ¡¥": 7566,
      "éĻĪäºº": 7567,
      "çľĻ": 7568,
      "èĳŃ": 7569,
      "é£Łåħ¶": 7570,
      "äºĮå¹´æŃ£æľĪ": 7571,
      "åħĦä¹Ł": 7572,
      "åĦĭ": 7573,
      "æ¬¡åŃĲ": 7574,
      "éĿĴåĨĢ": 7575,
      "åĶ¯æľī": 7576,
      "å°Ĭåįĳ": 7577,
      "çĬ¯æ³ķ": 7578,
      "éĦ¢": 7579,
      "éĽĨè§£éĥĳåħĥæĽ°": 7580,
      "ä¸ºéĥİ": 7581,
      "ä¸ºå¾¡åı²å¤§å¤«": 7582,
      "æĽ°æ±Ŀ": 7583,
      "åºł": 7584,
      "åĲİæľī": 7585,
      "åĲİæĶ¹ä¸º": 7586,
      "åĲİæ±īå±ŀ": 7587,
      "äºĭæľī": 7588,
      "åįĹå¹³": 7589,
      "äºĶéĥ¡": 7590,
      "æĸĩåŃĲ": 7591,
      "æĹ¥ä¸Ń": 7592,
      "éĺ²å¾¡": 7593,
      "åįĥç§ĭ": 7594,
      "æķ°å²ģ": 7595,
      "æ°´ä¸Ń": 7596,
      "æĻĭéĻµ": 7597,
      "æĸ¹æŃ£": 7598,
      "å¼łåįİ": 7599,
      "éķĩæģ¶": 7600,
      "æµ·è¥¿": 7601,
      "æ°¸åħ´": 7602,
      "å¿łåŃĿ": 7603,
      "èĩ´ä»ķ": 7604,
      "åľ£çİĭ": 7605,
      "å¥Ķäºİ": 7606,
      "è½»è½¦": 7607,
      "å¿§æĥ§": 7608,
      "èĪĨé¬¼": 7609,
      "åĪĬ": 7610,
      "ä½¥": 7611,
      "çİĭä¿Ń": 7612,
      "æīĢçĶ±": 7613,
      "åĲİåľŁ": 7614,
      "ä¸Ģçº§": 7615,
      "æĹłåı¯": 7616,
      "æµĩ": 7617,
      "æŃ¦çļĩå¸Ŀ": 7618,
      "çŃł": 7619,
      "å®īä¸ľå°ĨåĨĽ": 7620,
      "å¹³å®ļ": 7621,
      "èĩ£è¯·": 7622,
      "çķĭ": 7623,
      "ä½ķåħ¶": 7624,
      "ç¥ĸå®Ĺ": 7625,
      "éŃıåĨĽ": 7626,
      "æŃ»åĲİ": 7627,
      "åĳ¨å®¤": 7628,
      "æľ¬åĲį": 7629,
      "æ¢ģæŃ¦å¸Ŀ": 7630,
      "æĪĺè´¥": 7631,
      "å¤ªå®Īçİĭ": 7632,
      "é¥±": 7633,
      "å°½åĬĽ": 7634,
      "è¾ŀä¹Ł": 7635,
      "æŃ¢äºİ": 7636,
      "ç«ŁéĻµ": 7637,
      "å¦ĤæŃ¤åĪĻ": 7638,
      "çºµåħµ": 7639,
      "é³¥": 7640,
      "åĲİåĳ¨ç½®": 7641,
      "ä¹ĭåºĶä¹Ł": 7642,
      "ä»¥è¡Į": 7643,
      "ä¸ºæľ¬": 7644,
      "ä¸ºåĲı": 7645,
      "ä¸įæŃ£": 7646,
      "è´Ń": 7647,
      "èµŃ": 7648,
      "èĢħæľī": 7649,
      "æľĪæ°ı": 7650,
      "æķħè¨Ģ": 7651,
      "æĸĩåŃĹ": 7652,
      "ä½Ļçº§": 7653,
      "äº¦äºĳ": 7654,
      "å·²å®ļ": 7655,
      "åŃĿåŃĲ": 7656,
      "éĥ¨ä¼Ĺ": 7657,
      "è·¸": 7658,
      "éķĩåĨĽ": 7659,
      "éķĩä¸ľå°ĨåĨĽ": 7660,
      "æĶ»åĽ´": 7661,
      "ç®¸": 7662,
      "å¤±èī²": 7663,
      "å°ĦèĢĮ": 7664,
      "æī§éĩĳåĲ¾": 7665,
      "ä½Ĳåĳ½": 7666,
      "æ±īä¹¦ä½ľ": 7667,
      "æĵĴä¹ĭ": 7668,
      "æ±Łå¤ıçİĭä¹īæģŃ": 7669,
      "ä»¥åĽ½": 7670,
      "ä»¥æĺ¯": 7671,
      "ä¸įèµ·": 7672,
      "èĢĮå¼Ĺ": 7673,
      "æĸŁ": 7674,
      "å½¤": 7675,
      "ä¸Ĭå£«": 7676,
      "åħ¬è½¦": 7677,
      "åľ¨éķ¿å®ī": 7678,
      "åıĪæĹł": 7679,
      "æŃ¦åŁİ": 7680,
      "çŃµ": 7681,
      "æ¬·": 7682,
      "å¹³çĶŁ": 7683,
      "åĮĹæĸĹ": 7684,
      "çŁ¥ç¥¥": 7685,
      "æĪĲä¾¯": 7686,
      "å»ºåĽ½": 7687,
      "ç²¤": 7688,
      "è¿½èĩ³": 7689,
      "ä¸§äºĭ": 7690,
      "ä¹Įä¸¸": 7691,
      "è¡¡å±±": 7692,
      "äºĶåįģåĽĽ": 7693,
      "æ´ªèĮĥ": 7694,
      "ç«¹ä»²ç¿»": 7695,
      "è¿ĽçĪµä¸ºåħ¬": 7696,
      "å¤ªåŃ¦åįļå£«": 7697,
      "æĳ©è¯ĥ": 7698,
      "ä¸Ńæķ£å¤§å¤«": 7699,
      "îŁ": 7700,
      "åħ¶ä¹¦": 7701,
      "äººçĶŁ": 7702,
      "çİĭå¯¼": 7703,
      "èĩ³çŁ£": 7704,
      "å¤©ç©Ĩ": 7705,
      "è¨Ģè¯Ń": 7706,
      "æĹ¶ä»¥": 7707,
      "ä¹ĥæĽ´": 7708,
      "çº±": 7709,
      "èį¼": 7710,
      "å°ĳåŃ¤": 7711,
      "æ³ķä¹Ł": 7712,
      "å°ıåĽ½": 7713,
      "éķĩåįĹ": 7714,
      "åĶĲèĻŀ": 7715,
      "çĸ¾ç¬ĥ": 7716,
      "å¯»åĬł": 7717,
      "åĺı": 7718,
      "æŀĹçĶ«": 7719,
      "åĻ¨ä¹Ł": 7720,
      "æľķçĶļ": 7721,
      "éŀ«": 7722,
      "éģ¿ä¹ĭ": 7723,
      "å¸¸å±±çİĭ": 7724,
      "æ²»çĽ´åĲıç¿»": 7725,
      "å¾ģåįĹå¤§å°ĨåĨĽ": 7726,
      "ç¿ł": 7727,
      "ç»Ĳ": 7728,
      "æīĢéĩį": 7729,
      "å¸Ŀäºİ": 7730,
      "äºĭåľ¨": 7731,
      "åľ¨éĥ¡": 7732,
      "èĭ´": 7733,
      "èĩ£çħ§": 7734,
      "åħĥå¿ł": 7735,
      "éķ¿æ°´": 7736,
      "åĩºä¹ĭ": 7737,
      "åĮĹåĨĽ": 7738,
      "å®Īå®°": 7739,
      "åĲĮæĹ¶": 7740,
      "é½Ĳä¹ĭ": 7741,
      "å¦ĩå¥³": 7742,
      "æ¤ģ": 7743,
      "åºĲéĻµçİĭ": 7744,
      "å¡«æĺŁ": 7745,
      "åħµé©¬ä½¿": 7746,
      "ä¸ºèĩ£": 7747,
      "ä¸įä¿®": 7748,
      "å¤§æĺŁ": 7749,
      "å£ħ": 7750,
      "åĽĽå°º": 7751,
      "æĥŃ": 7752,
      "è¥¿éģĵ": 7753,
      "è¥¿å·Ŀ": 7754,
      "å¤įè¿ĺ": 7755,
      "åħŃå¯¸": 7756,
      "å£«ä¹ĭ": 7757,
      "å°ļæĸ¹": 7758,
      "æĿİåħĭçĶ¨": 7759,
      "ç«łå¸Ŀ": 7760,
      "åĳĬæĢ¥": 7761,
      "èİ·åħį": 7762,
      "ä¹ŀéª¸éª¨": 7763,
      "çĺĹ": 7764,
      "éĩįçĽ´é¾Ļ": 7765,
      "ĠĠ": 7766,
      "åıł": 7767,
      "å®Ļ": 7768,
      "ä¸ºæŃ£": 7769,
      "ä¸ºéķ¿åı²": 7770,
      "ä¸įè±«": 7771,
      "åĨı": 7772,
      "äºİæĪĳ": 7773,
      "äººæ°ĳ": 7774,
      "è´®": 7775,
      "éķĲ": 7776,
      "ä¿Ľ": 7777,
      "åįĹèĽ®": 7778,
      "è¥¿æĪİ": 7779,
      "åĪĻä»¥": 7780,
      "å¤įç«ĭ": 7781,
      "åħŃä¸ĩ": 7782,
      "åħŃåĵģ": 7783,
      "æľªè§ģ": 7784,
      "åĲĮå§ĵ": 7785,
      "é½Ĳå¸Ī": 7786,
      "å·²èĢĮ": 7787,
      "éŁ³éħī": 7788,
      "æįī": 7789,
      "ç¨Ķ": 7790,
      "é»Ħå·¢": 7791,
      "äºĮåįģäºĶå¹´": 7792,
      "å°½åħ¶": 7793,
      "åı¸é©¬è¿ģ": 7794,
      "çĮ®ä¹ĭ": 7795,
      "è¯ŃçīĽ": 7796,
      "åĴ¸éĺ³çİĭ": 7797,
      "æľ±éĽĢ": 7798,
      "å¾Ļå°ģ": 7799,
      "ç§¯å¹´": 7800,
      "é¡¿ä¸ĺ": 7801,
      "å¤§èµ¦æĶ¹åħĥ": 7802,
      "å¤ªåĴĮä¸Ń": 7803,
      "å»ºå®īçİĭ": 7804,
      "è¬ĩ": 7805,
      "åĢ¨ç¿»": 7806,
      "ä¸ºæĪĳ": 7807,
      "ä¸įåĬ¨": 7808,
      "ä¸įé¡»": 7809,
      "å·į": 7810,
      "æĽ°éĻĽä¸ĭ": 7811,
      "ä¹Łç´¢éļł": 7812,
      "äººçĽ¸": 7813,
      "æľīè¿ĩ": 7814,
      "ä¸īæĹı": 7815,
      "ä¸ĢçŃī": 7816,
      "ä¸Ĭæµģ": 7817,
      "åįĹå¾Ĳå·ŀåĪºåı²": 7818,
      "å®īè¥¿": 7819,
      "å®īéĤĳ": 7820,
      "å¹³ä¸ľå°ĨåĨĽ": 7821,
      "æ±ŁåĮĹ": 7822,
      "çľļ": 7823,
      "åħ´å®Ĺ": 7824,
      "æľ¬æľĿ": 7825,
      "å¾·å®Ĺ": 7826,
      "çĦīèĢĨ": 7827,
      "èµµéĥ¡": 7828,
      "ä»»åŁİ": 7829,
      "åĪ«è§ģ": 7830,
      "æ½®": 7831,
      "åĨľæ¡ĳ": 7832,
      "èļ¤": 7833,
      "èıŁ": 7834,
      "æ³¾å·ŀ": 7835,
      "ç¶Ĥ": 7836,
      "èĥ¶ä¸ľ": 7837,
      "ä¸įåı¯èĥľæķ°": 7838,
      "åºŀ": 7839,
      "æľīè¨Ģ": 7840,
      "å¸Ŀä»¤": 7841,
      "äºĭåĲĽ": 7842,
      "å¦«": 7843,
      "éļĦ": 7844,
      "åıĪä¸ľ": 7845,
      "æŃ¦åºĵ": 7846,
      "åĮĹåı²": 7847,
      "æĮ¹": 7848,
      "åľ°å½¢": 7849,
      "ä¹Ŀåĭ¿ç¿»": 7850,
      "åĨħä¾į": 7851,
      "åīįæ®¿": 7852,
      "æ±Łè¥¿": 7853,
      "ç§¦å§ĭçļĩ": 7854,
      "å½ĴéĻĦ": 7855,
      "éķĩåĨĽå°ĨåĨĽ": 7856,
      "è´µæĪļ": 7857,
      "äºİæĺ¯ä¹İ": 7858,
      "æķ¬åĦ¿": 7859,
      "åĢ¾è¦Ĩ": 7860,
      "æĹĮæĹĹ": 7861,
      "æĻĭå¤ªåº·åľ°å¿Ĺ": 7862,
      "è¿ĳåħ¶éĿ³ç¿»": 7863,
      "ä¸ºåĨĽ": 7864,
      "å¹ħ": 7865,
      "è¯Ŀ": 7866,
      "èĢĮä½¿": 7867,
      "å¤§åı¸ç©º": 7868,
      "ä¸īä¸ĸ": 7869,
      "è¾ī": 7870,
      "èĥĥ": 7871,
      "é©¬æŃ¥": 7872,
      "çŁ¥äºº": 7873,
      "å¿ħæĹł": 7874,
      "æĹ¢å¹³": 7875,
      "å¥īå¤©": 7876,
      "ç©Ĩä¹ĭ": 7877,
      "èª¬å¼ıèĬ®ç¿»": 7878,
      "å·´èľĢ": 7879,
      "è¡Ķç¿»": 7880,
      "æĭĽè®¨ä½¿": 7881,
      "ä»¥åħħ": 7882,
      "èĩªä»¥ä¸º": 7883,
      "æŃ¤äºĮ": 7884,
      "äºĳäºĳ": 7885,
      "çŃīè°ĭ": 7886,
      "ç«ĭäºİ": 7887,
      "åº¦è¾½": 7888,
      "åĬłä¹ĭ": 7889,
      "åłµ": 7890,
      "æ»¨": 7891,
      "æ¯Ķæ¯Ĺ": 7892,
      "çİĦè°Ł": 7893,
      "äºĮçĻ¾éĩĮ": 7894,
      "ï¼īãĢĶ": 7895,
      "åĩ¤çļĩ": 7896,
      "é£İä¿ĹéĢļ": 7897,
      "è´¾éĢµæĽ°": 7898,
      "å®¼": 7899,
      "ä»¥æŃ»": 7900,
      "æĺ«": 7901,
      "åħ¶ä¿Ĺ": 7902,
      "å¤ªä¸Ĭ": 7903,
      "ä»İåı£": 7904,
      "åľ¨åĲİ": 7905,
      "åŁİå®Ī": 7906,
      "åĽĽéĹ¨": 7907,
      "éķ¿é©±": 7908,
      "åĮĹè®¨": 7909,
      "å¾ģåįĹå°ĨåĨĽ": 7910,
      "çĻ½æĽľ": 7911,
      "æĸ°äºŃ": 7912,
      "æĺŃæĺİ": 7913,
      "æ¹ı": 7914,
      "å¤ľåįĬ": 7915,
      "åĻ¬": 7916,
      "æ¾¶": 7917,
      "èĢĥå¼ĤæĽ°å®ŀéĮ²": 7918,
      "æĻıé©¾": 7919,
      "ä¹ĹèĪĨ": 7920,
      "è¯±éŁ³éħī": 7921,
      "åĭīä¹ĭ": 7922,
      "æĺ¬": 7923,
      "äºİåĲĽ": 7924,
      "èĢĮå¤§": 7925,
      "æľīå¿Ĺ": 7926,
      "è°Ģ": 7927,
      "æ°·": 7928,
      "èĢħè°ĵ": 7929,
      "èĩªåĩº": 7930,
      "å®īåįĹ": 7931,
      "çļĨæĹł": 7932,
      "çīĸ": 7933,
      "æľªåĨ³": 7934,
      "å²·": 7935,
      "éŃļ": 7936,
      "æĤĿ": 7937,
      "åľ°éģĵ": 7938,
      "æĻĭä¹¦": 7939,
      "ç¤¼è®°æĽ°": 7940,
      "èĤł": 7941,
      "è¢Ĥ": 7942,
      "èµ·ä¸º": 7943,
      "æ²»ä¹¦": 7944,
      "æ°¸çĨĻ": 7945,
      "ç«łéĤ¯": 7946,
      "èµ¤çľī": 7947,
      "æĭ¾éģĹ": 7948,
      "æĽ³": 7949,
      "ä¸ºä¹Ĳ": 7950,
      "ä¸įå¹¸": 7951,
      "ä½º": 7952,
      "æĽ°å¤©": 7953,
      "ä¹Łä¸Ķ": 7954,
      "äºİè·¯": 7955,
      "éģĺ": 7956,
      "ä¸Ńç«¹ä»²ç¿»": 7957,
      "ä¸Ĭè°ĵ": 7958,
      "ä¸ĬçĶŁ": 7959,
      "ä¸İåŃĲ": 7960,
      "æģĬ": 7961,
      "äºĶå°º": 7962,
      "æĺ¯çĶ¨": 7963,
      "åĽĽå¯¸": 7964,
      "æĸĩäºĳ": 7965,
      "ä»¤å°¹": 7966,
      "å¦ĤåĪĿ": 7967,
      "æĪĲä¹ĭ": 7968,
      "å°ģäºĭ": 7969,
      "èĳµ": 7970,
      "æľįåħ¶": 7971,
      "åĩ»èµ°ä¹ĭ": 7972,
      "åĲĦç½®": 7973,
      "çĶ°å®ħ": 7974,
      "éĶĢ": 7975,
      "æ®¿åīį": 7976,
      "åĵĢçİĭ": 7977,
      "å¾¡åı²ä¸Ńå°ī": 7978,
      "èĪĨé©¾": 7979,
      "æ¸łå¸ħ": 7980,
      "å¤Ģæĺ¥": 7981,
      "é»ľéĻŁ": 7982,
      "çĤ½ç£Ĳ": 7983,
      "åĲ´åħ´å¤ªå®Ī": 7984,
      "ä¸ºæĻĭ": 7985,
      "åĨĩ": 7986,
      "å¦¨": 7987,
      "åįĹè¶Ĭ": 7988,
      "äºĶåįģäºĮ": 7989,
      "çĻ¾æıĨ": 7990,
      "æĸĩèĤ²": 7991,
      "ä¹ĥéĢĢ": 7992,
      "æĥ¨": 7993,
      "åĩºéķĩ": 7994,
      "å±±éĺ´": 7995,
      "æľªåıĳ": 7996,
      "éģ£åĨĽ": 7997,
      "éŃıåįļ": 7998,
      "ä¹ĿéĶ¡": 7999,
      "èĭ¥ä½¿": 8000,
      "çĲ¦": 8001,
      "å¤ļçŁ£": 8002,
      "å¿ħè´¥": 8003,
      "å¤±åĪ©": 8004,
      "åıĤè®®": 8005,
      "èº«éķ¿": 8006,
      "è¾°æĺŁ": 8007,
      "çĴŁ": 8008,
      "å°ĶéĽħæĽ°": 8009,
      "è¯ŃçīĽåĢ¨ç¿»": 8010,
      "ä¹ĭéĹ¨": 8011,
      "ä»¥ç»Ļ": 8012,
      "ä½ĥ": 8013,
      "éĥ¯": 8014,
      "ç¿³": 8015,
      "äºĮä¸ī": 8016,
      "ä¸Ĭå¤©": 8017,
      "ä¸ľå¤·": 8018,
      "åİ¿æ±īå±ŀ": 8019,
      "è§ģç§°": 8020,
      "åīįä¹¦æĽ°": 8021,
      "éŁ³å¯Ĵ": 8022,
      "è±³": 8023,
      "éħ¸": 8024,
      "å®«éĹ¨": 8025,
      "å¼łèĢ³": 8026,
      "åŃĹæĻ¯": 8027,
      "éĩįèĢ³": 8028,
      "çİĩåħ¶": 8029,
      "æ¶¤": 8030,
      "çĶ²å£«": 8031,
      "çķĻä¹ĭ": 8032,
      "æİĪä¹ĭ": 8033,
      "å°Ŀä¸İ": 8034,
      "äº¤éĺ¯": 8035,
      "ç½¢ä¹ĭ": 8036,
      "é¥¥å¯Ĵ": 8037,
      "ä»¥å¾·": 8038,
      "ä»¥æ³ķ": 8039,
      "èĢĮåįĹ": 8040,
      "æīĢç«ĭ": 8041,
      "åĲİå¤į": 8042,
      "ä¸ľèİŀ": 8043,
      "åıĪåĬł": 8044,
      "è°ĵå®ľ": 8045,
      "è¯¸åĲķ": 8046,
      "å¦Ĥåīį": 8047,
      "ä¸»ä¹Ł": 8048,
      "éŁ³å£¬": 8049,
      "å¤ıåħŃæľĪ": 8050,
      "æĪĸè¨Ģ": 8051,
      "å¤±ä¹ĭ": 8052,
      "åĪ«æľī": 8053,
      "è¿ĳèĩ£": 8054,
      "çĸĳåħ¶": 8055,
      "åĽĽåįģäºĶ": 8056,
      "éĢīä¸¾": 8057,
      "èįīåĪĽ": 8058,
      "ä»ĵåįĴ": 8059,
      "æ§©": 8060,
      "éĵ¸éĴ±": 8061,
      "åĮĹæµ·çİĭ": 8062,
      "èĺĵ": 8063,
      "çĽ±çľĻ": 8064,
      "éĩįçĽ´é¾Ļç¿»": 8065,
      "åŃķ": 8066,
      "æŃĶ": 8067,
      "äººäºº": 8068,
      "å·ŀçķĮ": 8069,
      "èĢħåħ¶": 8070,
      "å¸Ŀä¸º": 8071,
      "ä¸İè´¼": 8072,
      "ä¸ľæĺı": 8073,
      "ä¹ĥæľī": 8074,
      "åĮĹè¾¹": 8075,
      "åħŃå·ŀ": 8076,
      "äº¦èģ²": 8077,
      "æĸ¹ä¹ĭ": 8078,
      "å¼łæ°ı": 8079,
      "æħĳ": 8080,
      "å¤ıåĲİ": 8081,
      "æĪĸè°ĵ": 8082,
      "ä»ªæ³¨": 8083,
      "æ°¸åĴĮ": 8084,
      "ä»»éŁ³å£¬": 8085,
      "é¦ĸå°¾": 8086,
      "çĽĳåı¤": 8087,
      "ä¸īåįģäºĶ": 8088,
      "åŃŁå°Ŀ": 8089,
      "èļ©": 8090,
      "å¸ĮçĥĪ": 8091,
      "ä¸Ĭä¹¦è¨Ģ": 8092,
      "éĥģæŀĹ": 8093,
      "ä»¥éģĵ": 8094,
      "ä»¥å¾¡": 8095,
      "ä¸įè§ī": 8096,
      "åĲİä»İ": 8097,
      "ä¸Ģè¨Ģ": 8098,
      "èĩªåĲİ": 8099,
      "æĹ¶èĢĮ": 8100,
      "æŃ¦è´²": 8101,
      "è¥¿éĹ¨": 8102,
      "è¯¸äºº": 8103,
      "æľªè¶³": 8104,
      "èĪĽ": 8105,
      "åĨħå±ŀ": 8106,
      "éªĳåħµ": 8107,
      "èĤĪ": 8108,
      "å¿ħä¸º": 8109,
      "èĻ½æĹł": 8110,
      "ç½ªä¹Ł": 8111,
      "åĩ»å¤§çł´ä¹ĭ": 8112,
      "åĲĪäºİ": 8113,
      "éļ¾å½ĵ": 8114,
      "æ´Ľç¿»": 8115,
      "è¿½å°ģ": 8116,
      "åħ¼æķ£éªĳå¸¸ä¾į": 8117,
      "çĩķä¸»": 8118,
      "å±¯åħµ": 8119,
      "è¾¹å¢ĥ": 8120,
      "æĸĩå¸Ŀåħĥåĺī": 8121,
      "é¥¥é¦ĳ": 8122,
      "éģĹäºİåŃ£ç¿»": 8123,
      "å®¸": 8124,
      "ä¸įæĦ¿": 8125,
      "åŃĲèĥ¥": 8126,
      "çİĭå®Ĺ": 8127,
      "äºĮå·ŀè¯¸åĨĽäºĭ": 8128,
      "ä½¿éĺ²": 8129,
      "æĹłåĴİ": 8130,
      "èĩ£æĿ¾ä¹ĭ": 8131,
      "æĹ¥åįĹ": 8132,
      "ä»¤çĭĲ": 8133,
      "éķ¿äºİ": 8134,
      "åħ¥åħ¶": 8135,
      "å¤ĸç¿»": 8136,
      "æ³ķé©¾": 8137,
      "äºĮåįģä¸ĥå¹´": 8138,
      "åĸĦæģ¶": 8139,
      "ä¸´æ´®": 8140,
      "çĬ¹è±«": 8141,
      "éĤĳä¹Ł": 8142,
      "æķ£æĤī": 8143,
      "ä¸įèĥ½åĪ¶": 8144,
      "åĩ¡æīĢ": 8145,
      "ç´łä¸İ": 8146,
      "ä¸§æľį": 8147,
      "è¢Ńä¹ĭ": 8148,
      "åº¶åĩł": 8149,
      "æ¼«": 8150,
      "åİ¥ä¹Ŀåĭ¿ç¿»": 8151,
      "åħħåĽ½": 8152,
      "æ³£æĽ°": 8153,
      "æ¥¼èĪ¹": 8154,
      "çī¢ä¹ĭ": 8155,
      "ä¹ĭå½¢": 8156,
      "æĹ°": 8157,
      "åŃĲè´¡": 8158,
      "è´©": 8159,
      "èĢħäº¦": 8160,
      "ä¸īåİ¿": 8161,
      "ä¸īåįģä¸Ģ": 8162,
      "åĽ½ä¸Ń": 8163,
      "æĹłåĲİ": 8164,
      "åĽĽåįģä¸Ģ": 8165,
      "å¾ĹèĢĮ": 8166,
      "åħ¥å¤ªå¾®": 8167,
      "ä¸ĥåºĻ": 8168,
      "é½Ĳæ¡ĵåħ¬": 8169,
      "çĦ¶åħ¶": 8170,
      "è¿ĺæľĿ": 8171,
      "èĤľ": 8172,
      "åº¦å¾Ĵ": 8173,
      "åºľåı¸é©¬": 8174,
      "åį¿å¤§å¤«": 8175,
      "çĶļå¾Ĺ": 8176,
      "æ¶¡": 8177,
      "æĸ°éĻ¤": 8178,
      "æµİåŃĲ": 8179,
      "å²Ĥèĥ½": 8180,
      "çģµåħ¬": 8181,
      "åĹ£æºĲ": 8182,
      "è±¡ä¹Ł": 8183,
      "æķĻç¿»": 8184,
      "ä½Ĩä»¥": 8185,
      "èª¬è¾ĵèĬ®ç¿»": 8186,
      "è¾ŁéĽį": 8187,
      "èį§æĥĳçĬ¯": 8188,
      "å°Ĵæľ±åħĨ": 8189,
      "æľīæĺŁåŃĽ": 8190,
      "ä¸įèĤĸ": 8191,
      "æĽ°èĭ¥": 8192,
      "äºİäºĭ": 8193,
      "åħ¶å¤ľ": 8194,
      "åŃĲè·¯": 8195,
      "æĹłç§ģ": 8196,
      "éķ¿å¹¿": 8197,
      "ä¹īä¹Ł": 8198,
      "ä¹īçľŁ": 8199,
      "ä½ķæķ¢": 8200,
      "æľĿé²ľ": 8201,
      "æĮļ": 8202,
      "åĿĤ": 8203,
      "åħĪåĲİ": 8204,
      "ä¼Ĺäºº": 8205,
      "å·²æľī": 8206,
      "è¢´": 8207,
      "åĶĩ": 8208,
      "åİ»ç¾Į": 8209,
      "ç»ıæĽ°": 8210,
      "æĸ°éĥ½": 8211,
      "æī§äºĭ": 8212,
      "æĿ¨æ°ı": 8213,
      "ç©ºèĻļ": 8214,
      "æĴ¤": 8215,
      "åĮĸä¸º": 8216,
      "çĹħæŃ»": 8217,
      "ä¾ĿæĹ§": 8218,
      "å¤ªåİŁçİĭ": 8219,
      "å©ļå§»": 8220,
      "ä¹ĭè¯´": 8221,
      "æīĳ": 8222,
      "åŃĲä»¥": 8223,
      "å¥Ń": 8224,
      "åħ¬ä¸º": 8225,
      "ä»Ĭä»İä¹ĭ": 8226,
      "æĹ¥èĢĮ": 8227,
      "æĭħ": 8228,
      "å±±å´©": 8229,
      "å²Į": 8230,
      "éģĤåħ¥": 8231,
      "é½ĲåıĹç¦ħ": 8232,
      "éĻĪçİĭ": 8233,
      "çĪ¶ä¹ĭ": 8234,
      "å»ºå®ģ": 8235,
      "å¼łèī¯": 8236,
      "æĺĵä¹ĭ": 8237,
      "æī¿åĹ£": 8238,
      "èİ·ä¹ĭ": 8239,
      "ä¿±ä¸º": 8240,
      "çĻ»ç¿»": 8241,
      "ç¦ģåħµ": 8242,
      "ä½Ĳéĥİ": 8243,
      "æ§Ĭ": 8244,
      "î¹": 8245,
      "å¸ĸ": 8246,
      "æľīå¾·": 8247,
      "åİĭ": 8248,
      "åĲİéĻ¤": 8249,
      "åįĹä¼Ĳ": 8250,
      "ä»İåĨĽ": 8251,
      "åŁİä¸Ĭ": 8252,
      "çĽ¸å·ŀåĪºåı²": 8253,
      "çĽ¸æī¿": 8254,
      "åİ¿çĶ·": 8255,
      "é¢Ĳ": 8256,
      "æİ·": 8257,
      "éĥ½æĬ¤": 8258,
      "ä¸ĩæķ°": 8259,
      "æĸ¹è¿Ľ": 8260,
      "æĿĢä¼¤": 8261,
      "çł´è´¼": 8262,
      "çĿ£æĬ¤": 8263,
      "æĽ¹ä¼¯": 8264,
      "åĶĲåĪ¶": 8265,
      "è´µå¦ĥ": 8266,
      "ä¹ĭåĲİä¹Ł": 8267,
      "åĦĴèĢħ": 8268,
      "æķ°åįĥéĩĮ": 8269,
      "èŃ²": 8270,
      "éªģåĿļå°§ç¿»": 8271,
      "ä¹ĭåĬŁä¹Ł": 8272,
      "åº¾äº®": 8273,
      "éĽĨè§£éªĥæ¡Īæ±īä¹¦éŁ³ä¹īæĽ°": 8274,
      "åİ»ç¾ĮåĲķç¿»": 8275,
      "ä¹ĭæĹ§": 8276,
      "ä¹ĭåŃĻä¹Ł": 8277,
      "ä»¥æķĳ": 8278,
      "çİĳ": 8279,
      "å°Ĩçİĭ": 8280,
      "åİ©": 8281,
      "æīĢä»¥ä¸º": 8282,
      "å¦Ĵ": 8283,
      "åıĪè¨Ģ": 8284,
      "æĸĩç§Ģ": 8285,
      "å¹³é½Ĳ": 8286,
      "å¹³éĻµ": 8287,
      "æĥ°": 8288,
      "å±±æŀĹ": 8289,
      "å£«ä¹Ł": 8290,
      "æĬ¼": 8291,
      "æĻĭå®īå¸Ŀ": 8292,
      "èĭ¥ä¹ĥ": 8293,
      "ç§¦äºº": 8294,
      "æľ¬æ³¨æĽ°": 8295,
      "åİ»å°±": 8296,
      "äº²ä¸´": 8297,
      "äº¡ä¹Ł": 8298,
      "åģķ": 8299,
      "æµģçŁ¢": 8300,
      "æļķ": 8301,
      "æ¹£": 8302,
      "åĺīç¦¾": 8303,
      "åİĨéĺ³": 8304,
      "æ£ł": 8305,
      "ç¾Įèĥ¡": 8306,
      "ç¾Įæł¡å°ī": 8307,
      "åį§ç¿»": 8308,
      "å¸Ĳä¸ĭ": 8309,
      "äº¶ç¿»": 8310,
      "ä¹ĭåĪ«": 8311,
      "ä¸įåĨ³": 8312,
      "åº»": 8313,
      "èĢħä¸ī": 8314,
      "èĢħéĿŀ": 8315,
      "éĹº": 8316,
      "åĽ½è¯Ń": 8317,
      "å¤©å®ĺ": 8318,
      "å®īéĥ¡": 8319,
      "å¹³æĺĮ": 8320,
      "äºĳéĺ³": 8321,
      "å®«æ®¿": 8322,
      "ä¸īå¹´æŃ£æľĪ": 8323,
      "åĪ©å®³": 8324,
      "çºªæĽ°": 8325,
      "æī¿ä¸ļ": 8326,
      "å¾ĢèĢħ": 8327,
      "å¾Ļå±ħ": 8328,
      "è´ºåħ°": 8329,
      "åħ¹è°ĵ": 8330,
      "äºĭè§ģäºĮçĻ¾": 8331,
      "ä»¥çĬ¶": 8332,
      "è¯¤": 8333,
      "åħ¶æŃ»": 8334,
      "æīĢåĪ¶": 8335,
      "æīĢç»Ł": 8336,
      "ä¸īåĽ½": 8337,
      "å¸Ŀå¹¸": 8338,
      "ä¸ĢæĹłæīĢ": 8339,
      "ä¸Ĭæ¬²": 8340,
      "åħ¬ä¾¯": 8341,
      "ä¸İå¼Ł": 8342,
      "æµĨ": 8343,
      "éĽİ": 8344,
      "éĥ¡æľī": 8345,
      "éķ¿å¹³": 8346,
      "é¢¡": 8347,
      "éģĵä¹ĭ": 8348,
      "ä¸ĩéªĳ": 8349,
      "ä½ĻæĮī": 8350,
      "å£«ä¼Ĺ": 8351,
      "åħ«å¯¸": 8352,
      "æĹ¢ä¸į": 8353,
      "æĻ¯çİĭ": 8354,
      "åıĶåĲĳ": 8355,
      "æģĲæĥ§": 8356,
      "çĤ¹": 8357,
      "åĳ¼éŁ©": 8358,
      "æľºå¯Ĩ": 8359,
      "åº¦å¾Ĵæ´Ľç¿»": 8360,
      "ï¼Ŀ": 8361,
      "èĢĮè§ģ": 8362,
      "ä¸īå²ģ": 8363,
      "å®īåįĹå°ĨåĨĽ": 8364,
      "è¯¸å¼Ł": 8365,
      "æĺİä¸»": 8366,
      "æĮŀ": 8367,
      "éĹ»åĸľ": 8368,
      "å°ģäºİ": 8369,
      "å°ģçĪµ": 8370,
      "èĳ±": 8371,
      "å°ıåŃĹ": 8372,
      "è¿ģä¾įä¸Ń": 8373,
      "å¤ıèĩ³": 8374,
      "å®£åħ¬": 8375,
      "è®¨è´¼": 8376,
      "éļıä¹ĭ": 8377,
      "åĬ¨éĿĻ": 8378,
      "æ²Ļèĭĳ": 8379,
      "å¸Īåı¤æĽ°è¨Ģ": 8380,
      "æ²¡äºİ": 8381,
      "æģĴå·ŀ": 8382,
      "åħŃåįģåĽĽ": 8383,
      "å·´ä¸ľ": 8384,
      "çŀ½": 8385,
      "æİĸéĹ¨": 8386,
      "éĤµéĻµçİĭ": 8387,
      "å°Ĩä½ľå¤§åĮł": 8388,
      "ä¸ºé½Ĳ": 8389,
      "ä¸ºéĢĨ": 8390,
      "åħ¶æķ°": 8391,
      "å¼Ń": 8392,
      "éĺĹ": 8393,
      "ä¸Ńå®Ĺ": 8394,
      "æīĢä»İ": 8395,
      "æĹ¶åľ¨": 8396,
      "å®īæ°ĳ": 8397,
      "éģ£å°ĨåĨĽ": 8398,
      "å§ĭå¹³": 8399,
      "ä¹±ç¿»": 8400,
      "æĸ°ä¸°": 8401,
      "æ´Ľæ°´": 8402,
      "å»¶æĺĮ": 8403,
      "çģµçİĭ": 8404,
      "éĽĨè§£éŁ¦æĺŃæĽ°": 8405,
      "ç½¢åħµ": 8406,
      "ä¸ºå°ļä¹¦å·¦ä»Ĩå°Ħ": 8407,
      "çīµçīĽ": 8408,
      "æµİåŃĲç¤¼ç¿»": 8409,
      "ä»¥æ¬¡": 8410,
      "ä¸įä¹¦": 8411,
      "äºİå®¶": 8412,
      "æľīåĽĽ": 8413,
      "å°Ĩä¹Ł": 8414,
      "æīĢçģŃ": 8415,
      "å¸Ŀè°ĵ": 8416,
      "ä¸ĬéĹ»": 8417,
      "ä¿¶": 8418,
      "åħµéĿ©": 8419,
      "è¡ĮèĢĮ": 8420,
      "ä¹ĥç«ĭ": 8421,
      "æĹ¥ä½Ļ": 8422,
      "åĮĹæľī": 8423,
      "ä¸ĥå¯¸": 8424,
      "åĳ¨äºº": 8425,
      "çŁ³ä¹ĭ": 8426,
      "ä¸¾åĵĢ": 8427,
      "éĹ®åħ¶": 8428,
      "è´¼ä¼Ĺ": 8429,
      "è¿ĩäºİ": 8430,
      "å¿łæŃ¦": 8431,
      "æĺĵä»¥éĺ²": 8432,
      "åħĥå¹´æŃ£æľĪ": 8433,
      "èĢĥä¹ĭ": 8434,
      "èľĢäºº": 8435,
      "æĺĶèĢħ": 8436,
      "æ¿¯": 8437,
      "èĳ£ä»²èĪĴ": 8438,
      "æķ°çĻ¾éĩĮ": 8439,
      "ç¸»": 8440,
      "æ±´å·ŀ": 8441,
      "ä¹ĭå¨ģ": 8442,
      "ä¹ĭåħļ": 8443,
      "ä¸ºäºĶ": 8444,
      "ä¸Ńå®«": 8445,
      "äºĮåŃĹ": 8446,
      "æīĢæľī": 8447,
      "èĩªäºĳ": 8448,
      "ä»İçĪ¶": 8449,
      "å®īæĪĲ": 8450,
      "çĽ¸è¿ŀ": 8451,
      "åı¯ä»İ": 8452,
      "éģĵåŃĲ": 8453,
      "æŃ£çĽ´": 8454,
      "ä¸»å®¢": 8455,
      "éģĤæľī": 8456,
      "ä½įäºİ": 8457,
      "å°ĳå¥½åŃ¦": 8458,
      "æĻ¯åĪĿ": 8459,
      "ç²ī": 8460,
      "ç®±": 8461,
      "æ·®è¥¿": 8462,
      "çģµæŃ¦": 8463,
      "éĽĨè§£è´¾éĢµæĽ°": 8464,
      "åĳ¼çģ«": 8465,
      "å½ķå°ļä¹¦": 8466,
      "ä¾ĭéĻį": 8467,
      "é¤Ĳ": 8468,
      "ä»¥ä¹ĭ": 8469,
      "ä¸įå¿ł": 8470,
      "ä¸įéģ¿": 8471,
      "æľīå¸¸": 8472,
      "çŁŁ": 8473,
      "ä¸ĢåĮ¹": 8474,
      "ä¸Ĭå®ĺ": 8475,
      "ä¸Ĭæ´Ľ": 8476,
      "ä¸ľå¹³çİĭ": 8477,
      "æķħç§°": 8478,
      "å»Ļ": 8479,
      "ä»Ĭæ¬²": 8480,
      "ä»ĬæĶ¹æŃ£": 8481,
      "åĪĻå¤©": 8482,
      "æľªæĪĲ": 8483,
      "ä½ķåı¯": 8484,
      "åīįæ±ī": 8485,
      "çĪ¶ä¹Ł": 8486,
      "è¯·ç½ª": 8487,
      "çŁ³éĹ¨": 8488,
      "ç¥ŀåĻ¨": 8489,
      "äºĮåįģåħŃ": 8490,
      "æĸ°å¹³": 8491,
      "å®°è¾ħ": 8492,
      "å§Ķä¹ĭ": 8493,
      "ä¸ĢçĻ¾ä¸Ģ": 8494,
      "è²İ": 8495,
      "åĮ»èį¯": 8496,
      "èµ·å±ħæ³¨": 8497,
      "å½ķäºĭåıĤåĨĽ": 8498,
      "æĸĩæĺİå¤ªåĲİ": 8499,
      "ä¹ĭçŃĸ": 8500,
      "è¯½": 8501,
      "åħ¶åħļ": 8502,
      "åħ¶æīĭ": 8503,
      "å°ĨæĿİ": 8504,
      "äºĶåĪĨ": 8505,
      "åľ¨åįĹ": 8506,
      "çĻ¾åı¸": 8507,
      "çĻ¾æķ°": 8508,
      "åı¸å·ŀåĪºåı²": 8509,
      "åĭ¾": 8510,
      "åĳ¨ä¸»": 8511,
      "åĳ¨æŃ¦å¸Ŀ": 8512,
      "çĶŁèĢĮ": 8513,
      "éĻĪéĥ¡": 8514,
      "éĴµ": 8515,
      "å¹¿å¹³çİĭ": 8516,
      "äºĮåįģåħŃå¹´": 8517,
      "åłĨ": 8518,
      "ä¼ĲèľĢ": 8519,
      "é«Ļå®Ĺ": 8520,
      "è®¡ä¹Ł": 8521,
      "çĮ®æŃ¦çİĭ": 8522,
      "çģµå·ŀ": 8523,
      "éŁ©çİĭ": 8524,
      "èĪįä¹ĭ": 8525,
      "æĬ¥æĽ°": 8526,
      "éĤºåŁİ": 8527,
      "åĮºåĮº": 8528,
      "åľĨä¸ĺ": 8529,
      "ä»¥å®ŀ": 8530,
      "ä»¥æµİ": 8531,
      "åħ¶ä¸»": 8532,
      "åħ¶å¾·": 8533,
      "äººé©¬": 8534,
      "å¤§ç¬ĳ": 8535,
      "èĢħä¼Ĺ": 8536,
      "å¤ªå»º": 8537,
      "å¸Ŀä»İä¹ĭ": 8538,
      "åĳµ": 8539,
      "ä»İéĩĳ": 8540,
      "åŁİä»¥": 8541,
      "è½µ": 8542,
      "çº½": 8543,
      "æ±īéĺ³": 8544,
      "ä½ķçĶ¨": 8545,
      "åįĥä¹ĺ": 8546,
      "æľĿçĮ®": 8547,
      "å¤«å¦ĩ": 8548,
      "é¡½": 8549,
      "åĳ¨æĹĭ": 8550,
      "å¸¸æľī": 8551,
      "çĲĩ": 8552,
      "ä¼łä½ľ": 8553,
      "éĥ¨éĥ½å°ī": 8554,
      "æ¯įæĽ°": 8555,
      "æ´Ľå·ŀåĪºåı²": 8556,
      "æ»Ľ": 8557,
      "è¾ŀä»¥": 8558,
      "æĿ¨è¡Įå¯Ĩ": 8559,
      "åĻī": 8560,
      "åĲ¬ä¹ĭ": 8561,
      "éĥĬåºĻ": 8562,
      "åĭĩç¿»": 8563,
      "åħīç¦Ħåĭĭ": 8564,
      "ç¢£": 8565,
      "èŃĽ": 8566,
      "åĥļä½Ĳ": 8567,
      "å«ģç¿»": 8568,
      "æģ¸åĵŃ": 8569,
      "æĺĬå¤©": 8570,
      "çĪªçīĻ": 8571,
      "ä¸ĭéģĲç¨¼": 8572,
      "å°ĦèĢĮäº¦ç¿»": 8573,
      "ä¹ĭåħĪ": 8574,
      "æľŀ": 8575,
      "ä»¥æ¸ħ": 8576,
      "ä¸įå¿ħ": 8577,
      "è¯³": 8578,
      "è¡ĺ": 8579,
      "ä¸Ģåº¦": 8580,
      "çĽ¸è¿ĳ": 8581,
      "ä»¤éķ¿": 8582,
      "åİ¿ç½®": 8583,
      "éĺ²ä¸º": 8584,
      "æķ°ä¸º": 8585,
      "éģĤä¸į": 8586,
      "åį³æŃ¤": 8587,
      "å·²èĩ³": 8588,
      "æ¢¯": 8589,
      "å®Ĺä¼¯": 8590,
      "å¹¿éĻµçİĭ": 8591,
      "å¤ıæĪ·": 8592,
      "éķĩè¥¿å°ĨåĨĽ": 8593,
      "çģµè¿Ĳ": 8594,
      "å´ĩéŁ¬": 8595,
      "æĥłåħ¬": 8596,
      "ç¦ģæŃ¢": 8597,
      "åĬ©æķĻ": 8598,
      "åı¥ä¸½": 8599,
      "ä¼ĬåĲ¾": 8600,
      "æ·ĳå¦ĥ": 8601,
      "éĦ±éĺ³": 8602,
      "æ¯Ķæ¯Ĺèĩ³ç¿»": 8603,
      "ä¹ĭå¥³": 8604,
      "ä¹ĭæĹı": 8605,
      "æĽ°å¤§": 8606,
      "è¿ħ": 8607,
      "æľīæĹ§": 8608,
      "ä¸İæĪĳ": 8609,
      "ä»ĬéĻĽä¸ĭ": 8610,
      "åħ¥è´¡": 8611,
      "å±±ä¸ĭ": 8612,
      "äº¦å½ĵ": 8613,
      "æŃ»çĶŁ": 8614,
      "ä¾įèĩ£": 8615,
      "èĭ¥æĺ¯": 8616,
      "å·²åĲİ": 8617,
      "æ°ĳæľī": 8618,
      "å°ıèĢħ": 8619,
      "åĲ¾éĹ»": 8620,
      "å¤ªå®ĪåĪĺ": 8621,
      "åģ¿": 8622,
      "æĸ°ä¹¦": 8623,
      "æĸ©èİ·": 8624,
      "æģŃå¸Ŀ": 8625,
      "çµľ": 8626,
      "èĭıå³»": 8627,
      "èı©": 8628,
      "æĸĽæĸ¯": 8629,
      "æĨ¾": 8630,
      "ð¬´": 8631,
      "æ°¸åĪĿéĥ¡åĽ½": 8632,
      "æĺĵä»¥éĺ²ç¿»": 8633,
      "åĳ¼çģ«æķħç¿»": 8634,
      "ä¹į": 8635,
      "ä¸ºå°ĨåĨĽ": 8636,
      "ä¸įæ²»": 8637,
      "å¤§é¥¥": 8638,
      "å°Ĩä¹ĭ": 8639,
      "ä¸ŃåĽ½ä¹ĭ": 8640,
      "ä¸ĢåŃĲ": 8641,
      "åħ¬èĩ³èĩª": 8642,
      "ç«¦": 8643,
      "æĹłäºº": 8644,
      "åįĹè®¨": 8645,
      "æŃ¦ä¿Ĭ": 8646,
      "åıĬçİĭ": 8647,
      "æŃ¤åıĪ": 8648,
      "çº¤": 8649,
      "åĩºä¹Ł": 8650,
      "åĩºå¸Ī": 8651,
      "åįĥæķ°": 8652,
      "åĲĽéķ¿": 8653,
      "çģ¶": 8654,
      "è¯ıéģ£": 8655,
      "åħ«æĹ¥": 8656,
      "éĩįè¯²": 8657,
      "åºľåĲĽ": 8658,
      "åĶĲä¸º": 8659,
      "äº¤è¶¾": 8660,
      "ä¸īåįģä¸ĩ": 8661,
      "åįķè¡£": 8662,
      "å¯¡åĲĽ": 8663,
      "æĹ¶å¹´äºĶåįģ": 8664,
      "è´°å¸Ī": 8665,
      "åĨĴé¡¿": 8666,
      "é·": 8667,
      "ä¹ĭå®ŀ": 8668,
      "ä»¥æĿİ": 8669,
      "ä¸įå®Ī": 8670,
      "åħ¶æĹ¶": 8671,
      "åħ¶ç¤¼": 8672,
      "å¤ªä¸Ģ": 8673,
      "ä¸ĭä¹Ł": 8674,
      "ä¸Ĭä½¿": 8675,
      "ä¸Ĭå¼Ģåºľ": 8676,
      "éĺ³éĹ¨": 8677,
      "ä¹ĥåı¯": 8678,
      "æĭ³": 8679,
      "å¦Ĥä¹Ł": 8680,
      "åĮĹå¾ģ": 8681,
      "éĹ¨çĶŁ": 8682,
      "åħĪåĲĽ": 8683,
      "åĳ½ä»¥": 8684,
      "å¿ħæŃ»": 8685,
      "å¿ħå½ĵ": 8686,
      "ä¹Ĳä¹Ł": 8687,
      "æĿİå¯Ĩ": 8688,
      "çĻ½å¸Ŀ": 8689,
      "äº¬çķ¿": 8690,
      "åºĶå¤©": 8691,
      "åĲ´æĺİå½»": 8692,
      "äº¡èĢħ": 8693,
      "å¥ıéĹ»": 8694,
      "è£¹": 8695,
      "æĺŁè¾°": 8696,
      "çĪµä½į": 8697,
      "çĥ¹": 8698,
      "ç´łæľį": 8699,
      "çĻ»åŁİ": 8700,
      "ç©Ĩå¸Ŀ": 8701,
      "æ¶Īæģ¯": 8702,
      "é¼ĵåĲ¹ä¸Ģéĥ¨": 8703,
      "éģ£ä½¿çĮ®æĸ¹çī©": 8704,
      "å¤ıæĪ·éĽħç¿»": 8705,
      "å·ŀä¹ĿåŁŁå¿Ĺ": 8706,
      "èĢħçŁ£": 8707,
      "å¤ªå®ī": 8708,
      "è¨Ģä¸º": 8709,
      "åıĪå¥ı": 8710,
      "éªĺ": 8711,
      "æĺİä¹ĭ": 8712,
      "ä¸ĩä¸Ģ": 8713,
      "æľĿåłĤ": 8714,
      "å£«äºº": 8715,
      "åĨħæľī": 8716,
      "è¿Ľæį®": 8717,
      "å¿ħçŁ£": 8718,
      "æĪĺæŃ»": 8719,
      "å¼Ģä»ĵ": 8720,
      "ä¸´ç»Ī": 8721,
      "æĺŃå¸Ŀ": 8722,
      "çĽĽå¾·": 8723,
      "æķĻåĮĸ": 8724,
      "èĸ¨åŃĲ": 8725,
      "æķ°åįģéĩĮ": 8726,
      "æĻ®éĢļ": 8727,
      "åįĹéĺ³éĥ¡": 8728,
      "ç»³è¯ģç¿»": 8729,
      "æľīå¼Ĥå¿Ĺ": 8730,
      "æĻĭæŃ¦å¸Ŀå¤ªåº·": 8731,
      "å¥īè½¦éĥ½å°ī": 8732,
      "ä»¥éĻį": 8733,
      "ä¸ºå°ı": 8734,
      "äºİä¼Ĺ": 8735,
      "èĢĮèĩ´": 8736,
      "è°²": 8737,
      "å¤§éĢĨ": 8738,
      "äºĮåĽ½": 8739,
      "æīĢçĶ¨": 8740,
      "ä¸Ģå¯¸": 8741,
      "ç«£": 8742,
      "èĩ³å¦Ĥ": 8743,
      "åıĪæ¬²": 8744,
      "æŃ¤æĺ¯": 8745,
      "åı¯è§Ĥ": 8746,
      "è¥¿è®¨": 8747,
      "åı¸çĽ´": 8748,
      "æĦķ": 8749,
      "åħŃåįģäºĮ": 8750,
      "åħŃåħ¸": 8751,
      "æĤ´": 8752,
      "ç¥ĸæ¯į": 8753,
      "é½ĲåĽ½": 8754,
      "åĪĺæĺ«": 8755,
      "æĹ¢æĹł": 8756,
      "äº²è¿ĳ": 8757,
      "ç¥ŀä¸»": 8758,
      "æĹ§ç«ł": 8759,
      "ç«łæŃ¦": 8760,
      "æĺĮé»İ": 8761,
      "å¿łä¿¡": 8762,
      "åĤ³": 8763,
      "å¤Ħå£«": 8764,
      "åĪ©ä¹Ł": 8765,
      "å©¿": 8766,
      "èħĲ": 8767,
      "èĸ¨äºİ": 8768,
      "çľŁå®ļ": 8769,
      "çī§çĬį": 8770,
      "åį¢é¾Ļ": 8771,
      "é¼ĵåĻª": 8772,
      "åºĲéĻµ": 8773,
      "è«¡æ³ķ": 8774,
      "åĩ½è°·": 8775,
      "ç¿°æŀĹåŃ¦å£«": 8776,
      "ä»¥å¥³": 8777,
      "ä¸įçĶ±": 8778,
      "åħ¶è§ģ": 8779,
      "äººéĹ´": 8780,
      "èĢħæĹł": 8781,
      "å¹´ä¸ĥåįģ": 8782,
      "æīĢå°ģ": 8783,
      "åĲİå±ŀ": 8784,
      "åĲİç¨·": 8785,
      "ä¸Ģå®¶": 8786,
      "ä¸ĭè½¦": 8787,
      "ä¸Ĭä¸į": 8788,
      "ä½¿è¿ĺ": 8789,
      "åŁ¸": 8790,
      "åĽ½å¿ł": 8791,
      "å²¿": 8792,
      "æķ°ä¹Ł": 8793,
      "æ²³ä¸Ĭ": 8794,
      "è¢Ĩ": 8795,
      "äº²èĩª": 8796,
      "åıĹä¸ļ": 8797,
      "èĸ®": 8798,
      "éľĸ": 8799,
      "å¨ģæĿĥ": 8800,
      "æĺĮä¾¯": 8801,
      "æĽ´ç«ĭ": 8802,
      "ç±´": 8803,
      "æķ¬ä¹ĭ": 8804,
      "éĽĨè§£æĿľé¢ĦæĽ°": 8805,
      "ä¸ĳå¥´": 8806,
      "ç®¡ç¿»": 8807,
      "èĤĥçĦ¶": 8808,
      "èĻļå®ŀ": 8809,
      "åį±äº¡": 8810,
      "å½¦æ·±": 8811,
      "ð«Ħ": 8812,
      "æ¢ĵæ½¼": 8813,
      "é¢Ĩåİ¿äºĮ": 8814,
      "ä¸įæĪĺ": 8815,
      "çİ®": 8816,
      "äººè°ĵ": 8817,
      "ä¸īå·ŀè¯¸åĨĽäºĭ": 8818,
      "å¤©çĶŁ": 8819,
      "åįĹå¾Ĳå·ŀ": 8820,
      "äºĶéĵ¢": 8821,
      "å»ĸ": 8822,
      "æĦ¬": 8823,
      "æ±īå®¶": 8824,
      "å±±ä¹Ł": 8825,
      "çļĩèĢĥ": 8826,
      "æ°´ä¹Ł": 8827,
      "å¸¸ä¸º": 8828,
      "åĳ½äºİ": 8829,
      "è¿Ľèĩ³": 8830,
      "å°ļä¹¦æĽ°": 8831,
      "æ¢ģä¸»": 8832,
      "åŃĻçļĵ": 8833,
      "éķĩåĮĹå°ĨåĨĽ": 8834,
      "å¼ĢåĽ½åħ¬": 8835,
      "äºĮåįģåħ«å¹´": 8836,
      "é¸±": 8837,
      "çľģæĤī": 8838,
      "è¡ŀçİĩ": 8839,
      "ä¼ĳèĮĥ": 8840,
      "åı¸å¾Ĵå·¦éķ¿åı²": 8841,
      "å½Ńè¶Ĭ": 8842,
      "âĸ³": 8843,
      "æĪ®åĬĽ": 8844,
      "ç¡ĥ": 8845,
      "çĶĺéľ²éĻį": 8846,
      "éĩįçĽ´çĶ¨ç¿»": 8847,
      "éĥŃçĴŀæĽ°": 8848,
      "å°īè¿Łè¿¥": 8849,
      "æķ£æĤīäº¶ç¿»": 8850,
      "ä¹ĭä¸¾": 8851,
      "ä¹ĭè´¹": 8852,
      "ä»¥å¹³": 8853,
      "ä»¥ç½ª": 8854,
      "äººç¥ŀ": 8855,
      "æľīåĻ¨": 8856,
      "çİĭäºİ": 8857,
      "å·ŀæ±ī": 8858,
      "æīĢéĹ»": 8859,
      "æĹ¶è®º": 8860,
      "é©¼": 8861,
      "éª¤": 8862,
      "æŃ¦åŃĲ": 8863,
      "å·²ä¸º": 8864,
      "æĿ¥å½Ĵ": 8865,
      "æľįä¹Ł": 8866,
      "éļ¾ä¹Ł": 8867,
      "èĢ³ä»Ĭ": 8868,
      "ç»ĪæĹł": 8869,
      "æĿ¨æĦĶ": 8870,
      "æĥ§èĢĮ": 8871,
      "çĴ©": 8872,
      "èĦ¯": 8873,
      "éĽ¨éĽ¹": 8874,
      "èĪŁå¸Ī": 8875,
      "å¼ĵçŁ¢": 8876,
      "æĤ¬çĵł": 8877,
      "å©´åŁİ": 8878,
      "æľĭåħļ": 8879,
      "âħ": 8880,
      "ä¹ĭçĶ±": 8881,
      "ä»¥å¤©ä¸ĭ": 8882,
      "åħ¶æĹł": 8883,
      "åľĥ": 8884,
      "æĻ©": 8885,
      "é©©": 8886,
      "èĩ£æģĲ": 8887,
      "æľªä¸º": 8888,
      "æľªå¹³": 8889,
      "éĥ½å°Ĩ": 8890,
      "æ°´èįī": 8891,
      "å·¦è¿ģ": 8892,
      "ç½®å·¦åı³": 8893,
      "éĻĪäºİ": 8894,
      "åİ»åħ¶": 8895,
      "åİ»çŁ£": 8896,
      "æĽ´ä¸º": 8897,
      "é¾ĻåŁİ": 8898,
      "å²Ĥç¿»": 8899,
      "å¯»èĢĮ": 8900,
      "åĲķå¸ĥ": 8901,
      "è¿ŀå¹´": 8902,
      "ç¦ģéĶ¢": 8903,
      "åģĩé»ĦéĴº": 8904,
      "åĽĽåįģåĽĽ": 8905,
      "ä¸ĵæĿĥ": 8906,
      "ä¸ºå¤§éĥ½çĿ£": 8907,
      "å²Ĳå·ŀ": 8908,
      "çļĩçĶ«è°§": 8909,
      "éĦ±éĺ³çİĭ": 8910,
      "æĽ¸": 8911,
      "ä¸įäºĭ": 8912,
      "æľīä½ķ": 8913,
      "å·ŀéĩĮ": 8914,
      "ä¸Ńä¹ĭ": 8915,
      "äºĮåĪĨ": 8916,
      "ä¸īæĢĿ": 8917,
      "ä¸Ĭåħĥ": 8918,
      "äºĭçļĨ": 8919,
      "ä¸İå¼ł": 8920,
      "æĢĨ": 8921,
      "èĭĩ": 8922,
      "è¥¿æµ·": 8923,
      "æ±īæľ«": 8924,
      "ä½įåľ¨": 8925,
      "åŃĿåħ¬": 8926,
      "äº²ä¿¡": 8927,
      "è·£": 8928,
      "æ°Ķä¹Ł": 8929,
      "åĪĹäºİ": 8930,
      "ç´¯ä¸ĸ": 8931,
      "èĳ¬äºİ": 8932,
      "æ²ĪæĶ¸ä¹ĭ": 8933,
      "æĹ¦å¤ķ": 8934,
      "è´¾è°Ĭ": 8935,
      "éĤºéĥ½": 8936,
      "å®ªç«ł": 8937,
      "åĪĢç¿»": 8938,
      "çĮĽåħ½": 8939,
      "ä¹ĭä¹īä¹Ł": 8940,
      "çķ§æĽ°": 8941,
      "ç¶¦": 8942,
      "å¼ĥåŁİèµ°": 8943,
      "é³ıå¯¡": 8944,
      "éĥ½çĿ£ä¸Ńå¤ĸè¯¸åĨĽäºĭ": 8945,
      "ä¸ĭéģĲç¨¼ç¿»": 8946,
      "ä»¥éĩį": 8947,
      "è¯ĭ": 8948,
      "åħ¶åĪ©": 8949,
      "å¤©ä¹Ł": 8950,
      "åı¯ä¸İ": 8951,
      "æİİ": 8952,
      "èĪª": 8953,
      "çļĩåŃĻ": 8954,
      "å¹¶åīį": 8955,
      "åĪĿå¹³": 8956,
      "å½Ĵå½¦": 8957,
      "åĲıåįĴ": 8958,
      "çİĩåľŁ": 8959,
      "æīįåŃ¦": 8960,
      "æı£": 8961,
      "èĢģå¼±": 8962,
      "å¿§ä¹ĭ": 8963,
      "æ¿³": 8964,
      "åĽĽåįģä½Ļ": 8965,
      "æ¤İ": 8966,
      "äºķéĻī": 8967,
      "åįĹéĺ³å¤ªå®Ī": 8968,
      "ä¸ĢåįĥæĪ·": 8969,
      "å¹³åİŁåĲĽ": 8970,
      "ä¸´å·Ŀçİĭ": 8971,
      "ç§£éĻµ": 8972,
      "±Ł": 8973,
      "ä¹ĭéŁ³": 8974,
      "ä¸įéĽ¨": 8975,
      "è¯ľ": 8976,
      "åħ¶è°ĭ": 8977,
      "æľīå¤©ä¸ĭ": 8978,
      "çļĦ": 8979,
      "å¸Ŀä½¿": 8980,
      "å¦¤": 8981,
      "ä¸İæŃ¤": 8982,
      "ä¸ľå¾ģ": 8983,
      "çĪ»": 8984,
      "ä¹ĥå¼ķ": 8985,
      "ç¦Ĩ": 8986,
      "åĮĹéĥĬ": 8987,
      "åħ¥å¯ĩ": 8988,
      "æĺİæĹ¦": 8989,
      "ä½ķå¿Ĺ": 8990,
      "é«ĺéĺ³çİĭ": 8991,
      "çĦ¶çĬ¹": 8992,
      "å®¶æĹł": 8993,
      "åĪĨä¹Ł": 8994,
      "åŃĹåħ¬": 8995,
      "çŁ³åŃ£é¾Ļ": 8996,
      "åıįèĢħ": 8997,
      "æĪĳä¹Ł": 8998,
      "æĶ¹æİĪ": 8999,
      "åĸĦéªĳå°Ħ": 9000,
      "è£¸": 9001,
      "æĽ´ä»¥": 9002,
      "æĽ¹æİ¾": 9003,
      "ä»²ç¤¼": 9004,
      "ä¸īåįģä¸ī": 9005,
      "å¸ĥå¸Ľ": 9006,
      "çĬ¯å¡ŀ": 9007,
      "éļĨå®ī": 9008,
      "æİ¨ä¹ĭ": 9009,
      "æĸŃåħ¶": 9010,
      "æĻºç¿»": 9011,
      "æĮ¯æŃ¦": 9012,
      "ç¦¹è´¡": 9013,
      "éĢĲä¹ĭ": 9014,
      "æ±¾å·ŀ": 9015,
      "è°ķä¹ĭ": 9016,
      "ä»ĻèĬĿ": 9017,
      "èµµçİĭä¼¦": 9018,
      "ð¬±Ł": 9019,
      "ä»¥åĨĽåĬŁ": 9020,
      "æŀ¢å¯Ĩä½¿": 9021,
      "ä¸įæĦı": 9022,
      "èĢĮä½ľ": 9023,
      "åĨĽç²®": 9024,
      "ä¾Ħ": 9025,
      "æīĢå½Ĵ": 9026,
      "èĩªå®ī": 9027,
      "å¤©æĢ§": 9028,
      "ä¹¦ä¸İ": 9029,
      "äºĶå·ŀ": 9030,
      "èĻĵ": 9031,
      "è¥¿è¿ģ": 9032,
      "å¤įæĹ§": 9033,
      "èİİ": 9034,
      "å½ĵæ¶Ĥ": 9035,
      "æ´İ": 9036,
      "å½Ĵä¹ī": 9037,
      "å»ºéĤº": 9038,
      "ç»ıä¼ł": 9039,
      "é»Ħéģĵ": 9040,
      "æ»ĩ": 9041,
      "åįģäºĮåº¦": 9042,
      "æľ¨è¿ŀçĲĨ": 9043,
      "å¡ŀå¤ĸ": 9044,
      "æĩĲæģ©": 9045,
      "éł¼": 9046,
      "åįģæľīä¸ĢæľĪ": 9047,
      "æ³Ĺæ°´": 9048,
      "ä¸Ĳ": 9049,
      "ä¹ĭå¾ģ": 9050,
      "ä¹ĭæĢ§": 9051,
      "æī¼": 9052,
      "å½ĺ": 9053,
      "å¥İ": 9054,
      "å¤©ç«º": 9055,
      "åıĪä½ľ": 9056,
      "éĥ¡ä¸Ń": 9057,
      "çĽ¸å¯¹": 9058,
      "ä¾¯åŃĲ": 9059,
      "æ¬²æĿĢä¹ĭ": 9060,
      "å½ĵä¸İ": 9061,
      "å¹¶è§ģ": 9062,
      "éĽĨåįģåį·": 9063,
      "èº¯": 9064,
      "çı¥": 9065,
      "è¶³çŁ£": 9066,
      "åŃ¦çĶŁ": 9067,
      "çī©ä¹Ł": 9068,
      "å»¶å¤Ģ": 9069,
      "åŀ¦": 9070,
      "çģµåı°": 9071,
      "è¯¸ä¾¯ä¹ĭ": 9072,
      "æģ¯æµªç¿»": 9073,
      "ç¥¸ä¹±": 9074,
      "åİīåħ¬": 9075,
      "åįİæŀĹåĽŃ": 9076,
      "äºĺ": 9077,
      "æľı": 9078,
      "ä»¥ç«ĭ": 9079,
      "ä¸įä¸Ń": 9080,
      "ä¸įç¥¥": 9081,
      "æīģ": 9082,
      "èĢĮæ±Ĥ": 9083,
      "çİĭä¸º": 9084,
      "å¤§æİł": 9085,
      "å¤§æºĥ": 9086,
      "å°Ĩä½Ĳ": 9087,
      "å¸Ŀèĩª": 9088,
      "ä¸İç§¦": 9089,
      "éĺ³ç¿Ł": 9090,
      "æķħåĲı": 9091,
      "éĤĻ": 9092,
      "çļĨæĺ¯": 9093,
      "éĥ¡ä¸ŀ": 9094,
      "ä»Ĭå¤©ä¸ĭ": 9095,
      "æĥķ": 9096,
      "å¤įè¨Ģ": 9097,
      "é«ł": 9098,
      "é£ı": 9099,
      "éĥ½æ°´": 9100,
      "éĹ¨æĪ·": 9101,
      "è¯ıä»¤": 9102,
      "çĭĪ": 9103,
      "ä¼łåĽ½": 9104,
      "ä»¥ä¸ºå®ľ": 9105,
      "çľĭ": 9106,
      "éĢļäºİ": 9107,
      "ç¨¹": 9108,
      "æµİæ±Ł": 9109,
      "äº¤å·ŀåĪºåı²": 9110,
      "åħļé¡¹": 9111,
      "æ²³åįĹçİĭ": 9112,
      "å¿Įä¹ĭ": 9113,
      "é¸Łåħ½": 9114,
      "æ¦Ĥ": 9115,
      "å¥Ħèĩ³": 9116,
      "äº¹": 9117,
      "ä¹ĭç¥ŀ": 9118,
      "ä»¥éħį": 9119,
      "ä¸įæµĭ": 9120,
      "åºĩ": 9121,
      "éĺ¬": 9122,
      "å¤§åħ´": 9123,
      "å°Ĩä½ķä»¥": 9124,
      "åĩĢ": 9125,
      "ä¸Ģå²ģ": 9126,
      "ä¸ĭèĩ³": 9127,
      "åŁİäºº": 9128,
      "æŃ¤åĦ¿": 9129,
      "å»Ĭ": 9130,
      "åĩºåĨĽ": 9131,
      "æ±īåĨĽ": 9132,
      "å±±åĮĹ": 9133,
      "å±±æ³½": 9134,
      "æŃ»ä¼¤": 9135,
      "æĪĲèĩ¯": 9136,
      "å¹¶èµ·": 9137,
      "å¤ļéļ¾": 9138,
      "åĪĺæĽľ": 9139,
      "éĩįåįİ": 9140,
      "åĲĪæµ¦": 9141,
      "æµģäºº": 9142,
      "èİ«èĭ¥": 9143,
      "ä¸įèĥ½çĶ¨": 9144,
      "çĸ¾èĭ¦": 9145,
      "æ·®éĺ´": 9146,
      "æİĪä»¥": 9147,
      "åħ³åı³": 9148,
      "åķ¬": 9149,
      "åĽĽå¹´æĺ¥æŃ£æľĪ": 9150,
      "æĪĴä¸¥": 9151,
      "åįģä½ĻæĹ¥": 9152,
      "åįľçŃ®": 9153,
      "æ±ĿåįĹçİĭ": 9154,
      "çĺł": 9155,
      "æĭ¥ä¼Ĺ": 9156,
      "æ¢ĵå®«": 9157,
      "åĪĺæĶ½æĽ°æ³¨": 9158,
      "ä¹ĭå¹´": 9159,
      "ä¹ĭä»¤": 9160,
      "ä»¥è§ģ": 9161,
      "èµĻ": 9162,
      "å¤©æĹ¶": 9163,
      "åįĹåįķäºİ": 9164,
      "ä»İé©¾": 9165,
      "è¨ĢæĹł": 9166,
      "å§Ĵ": 9167,
      "æĹ¥èļĢ": 9168,
      "åĮĹéĹ¨": 9169,
      "åĭį": 9170,
      "çŁ¥è¯°": 9171,
      "åĳ¨å¤©": 9172,
      "ä¹Ĳæ¯ħ": 9173,
      "æĶ¹å¹´": 9174,
      "äº¡åĽ½": 9175,
      "å°½å¿ĥ": 9176,
      "ä»ģèĢħ": 9177,
      "æķ¬å®Ĺ": 9178,
      "åĺīåħ¶": 9179,
      "å¿§ä¹Ł": 9180,
      "å«Ĥ": 9181,
      "é¡¾åĳ½": 9182,
      "è´ºèĭ¥": 9183,
      "åı²è®°æŃ£ä¹ī": 9184,
      "å¤ªçĻ½æĺ¼è§ģ": 9185,
      "ä¸ºå·¦åı³": 9186,
      "å¤§åħµ": 9187,
      "èĩ³ä¹ĥ": 9188,
      "æĹłä¸»": 9189,
      "å®īéĺ³": 9190,
      "çļĨå¾Ĺ": 9191,
      "çļĨåĩº": 9192,
      "åħĥåĲī": 9193,
      "åħĥé¢¢": 9194,
      "ä»¤åĬĽ": 9195,
      "åĪĻæĽ°": 9196,
      "åĪĻåħ¶": 9197,
      "å±±ä¸Ĭ": 9198,
      "é»ł": 9199,
      "æ²³æ´Ľ": 9200,
      "çĻ½è¡£": 9201,
      "åıĳä¸§": 9202,
      "å¥ıè¨Ģ": 9203,
      "åĩ»åĮĪå¥´": 9204,
      "æĹ§äºĭ": 9205,
      "æ¸ħæ°´": 9206,
      "å¯»è½¬": 9207,
      "è½¬è¿Ĳ": 9208,
      "çĤħ": 9209,
      "çµ®": 9210,
      "è¯ĨèĢħ": 9211,
      "ç´«å®«": 9212,
      "çĺ³": 9213,
      "ä¹ĭæĪĺ": 9214,
      "ä¸ºä¸ĸ": 9215,
      "ä¸įäº²": 9216,
      "ä¸įä»»": 9217,
      "èĩŃ": 9218,
      "èĢĮåı¯": 9219,
      "å·ŀéĥ½çĿ£": 9220,
      "éĹ±": 9221,
      "èĩªéļı": 9222,
      "èĩ³æ´Ľéĺ³": 9223,
      "å¤©æĦı": 9224,
      "åľ¨å®ĺ": 9225,
      "é©¯": 9226,
      "æĹ¥ä¹ħ": 9227,
      "åı¸å¯ĩ": 9228,
      "åħŃå®«": 9229,
      "æĺİå¾·": 9230,
      "åĲĮäºİ": 9231,
      "åĲįä½į": 9232,
      "åħĪçĻ»": 9233,
      "è¿ĺå®¶": 9234,
      "ç½®äºİ": 9235,
      "å¼Ĥäºİ": 9236,
      "æ¶ĵ": 9237,
      "ä¸´æ·Ħ": 9238,
      "åĥµ": 9239,
      "ä¼Ĳæ¥ļ": 9240,
      "è®ºä¹ĭ": 9241,
      "é²ģéĺ³": 9242,
      "èµĭè¯Ĺ": 9243,
      "èĭıå¨ģ": 9244,
      "æĬĺåĨ²": 9245,
      "æ²Ľéĥ¡": 9246,
      "è°ģèĥ½": 9247,
      "æİ¾å±ŀ": 9248,
      "æī°ä¹±": 9249,
      "ç§Łèµĭ": 9250,
      "ç³ľ": 9251,
      "æŃ¦å®ļä¸Ń": 9252,
      "å·¦æ°ıä¼ł": 9253,
      "å®ķæĺĮ": 9254,
      "éĢļäºĭèĪįäºº": 9255,
      "î´": 9256,
      "ä¹ĭæŃ»": 9257,
      "ä¸įæķĮ": 9258,
      "ä¸įåĢ¦": 9259,
      "åħ¶åįĹ": 9260,
      "è¿¦": 9261,
      "çİĭä¸ļ": 9262,
      "å¤§å®Ŀ": 9263,
      "ä¸īåı°": 9264,
      "äºĭåıĳ": 9265,
      "å¤©éĶ¡": 9266,
      "åľ¨ä¸ľ": 9267,
      "åľ¨åĨħ": 9268,
      "æķħä½¿": 9269,
      "åı¯ä½¿": 9270,
      "éķ¿ç§ĭ": 9271,
      "åĩºéĻį": 9272,
      "é£ĺ": 9273,
      "æŃ£æľĶ": 9274,
      "ä½ķçĦ¯": 9275,
      "åīįä¸ĸ": 9276,
      "å¿Ĺåį·": 9277,
      "èĲĥ": 9278,
      "æ³ķåĥ§": 9279,
      "éķĩä¹ĭ": 9280,
      "çİĩæŃ¥éªĳ": 9281,
      "èµĲå¸Ľ": 9282,
      "ä»£ç«ĭ": 9283,
      "æĹ§èĩ£": 9284,
      "ç§ĭä¹ĿæľĪ": 9285,
      "æ¸ħéĿĻ": 9286,
      "æľĽä¹Ł": 9287,
      "çĸ¾çĸ«": 9288,
      "åľ£ä¸»": 9289,
      "ä¸īåįģä¹Ŀ": 9290,
      "ä¼ĳæģ¯": 9291,
      "è¾Łä¸º": 9292,
      "åĽĽåįģåħŃ": 9293,
      "ç®Ģæĸĩ": 9294,
      "åĭĩå£«": 9295,
      "çºµæ¨ª": 9296,
      "å¯Ĵæļĳ": 9297,
      "æ²ĽåĽ½": 9298,
      "æľĿçĽ´éģ¥ç¿»ä¸ĭåĲĮ": 9299,
      "çĦļä¹ĭ": 9300,
      "ä»Ĭä»İå®ŀéĮ²": 9301,
      "èĳĹä½ľä½Ĳéĥİ": 9302,
      "éļĹåļ£": 9303,
      "ãĢĤâĢľ": 9304,
      "ä¹ĭæīĢä»¥": 9305,
      "ä»¥è¨Ģ": 9306,
      "ä»¥è±¡": 9307,
      "ä¸ºä¸ĭ": 9308,
      "ä¸įåİ»": 9309,
      "è¯ħ": 9310,
      "ä¹Łç´¢éļĲ": 9311,
      "å¸ĳ": 9312,
      "äºİæ¢ģ": 9313,
      "ç»ŀ": 9314,
      "ä¸Ńä¹Ł": 9315,
      "ä¸Ńå¤®": 9316,
      "éķķ": 9317,
      "å®īæ±ī": 9318,
      "æ±īåĪ¶": 9319,
      "ç¾Ĺ": 9320,
      "åĲĮè°ĭ": 9321,
      "åľ°ä¸º": 9322,
      "å¸ĪåĤħ": 9323,
      "è¿ĺæľ¬": 9324,
      "æ°ĳå¤ļ": 9325,
      "èĤº": 9326,
      "ç§°å¸Ŀ": 9327,
      "èĻ½æ¬²": 9328,
      "éķĩè¥¿": 9329,
      "ç®´": 9330,
      "é¥¯": 9331,
      "äºĮå¹´æĺ¥": 9332,
      "æķ¬å®£": 9333,
      "çºªäºĳ": 9334,
      "æıĶ": 9335,
      "çĳĬ": 9336,
      "éļıæĹ¶": 9337,
      "è®¾å¤ĩ": 9338,
      "åĬ©ä¹ĭ": 9339,
      "äº¬åħĨçİĭ": 9340,
      "æĻĭåħ¬æĬ¤": 9341,
      "ä½ºæľŁ": 9342,
      "ä¸ºéĺ²": 9343,
      "åħ¶ä½į": 9344,
      "åħ¶äº²": 9345,
      "æľīä¼Ĺ": 9346,
      "ä¼¸": 9347,
      "èĢħæķ°": 9348,
      "ä¸Ĭåĳ½": 9349,
      "åįĹè¯ı": 9350,
      "åįĹå¹³çİĭ": 9351,
      "ä»İéĤĳ": 9352,
      "ä¸ľè®¨": 9353,
      "çļĨéĻį": 9354,
      "å¹³ä¾¯": 9355,
      "åħĥåĴĮ": 9356,
      "åħĥé¼İ": 9357,
      "å¾Ĺå¹¸": 9358,
      "åĪĻå¤©ä¸ĭ": 9359,
      "æĦł": 9360,
      "ä¹īä¹ĭ": 9361,
      "é£¬": 9362,
      "çŃīè®®": 9363,
      "ç«ĭåºĻ": 9364,
      "æķ°æľī": 9365,
      "åħ«ä¸ĩ": 9366,
      "åıįè¦Ĩ": 9367,
      "çłĢ": 9368,
      "ç¥ŀéĺ²": 9369,
      "é¥µ": 9370,
      "å¤ªåŃĲå¤ªåĤħ": 9371,
      "æ¯įåŃĲ": 9372,
      "è¦©": 9373,
      "çķ¥éĺ³": 9374,
      "æ¨µ": 9375,
      "éģ¥åħī": 9376,
      "è²Ĭ": 9377,
      "æ±ĹéŁ³å¯Ĵ": 9378,
      "éĢĬä½į": 9379,
      "å¤ªæŀģæ®¿": 9380,
      "åį¤ç°¿": 9381,
      "åĳ¼éŁ©éĤª": 9382,
      "ä¹ĭæµģ": 9383,
      "ä¹ĭæľŁ": 9384,
      "ä¸įèģ¼": 9385,
      "çĶ¯": 9386,
      "æīĢæ±Ĥ": 9387,
      "ä¸Ĭä»¤": 9388,
      "ä¸İéŃı": 9389,
      "éĺ³æ®¿": 9390,
      "çĽ¸ä¼ł": 9391,
      "åİ¿æ±ī": 9392,
      "å¦ĤæĹ§": 9393,
      "èĪĦ": 9394,
      "ç½®çĻ¾å®ĺ": 9395,
      "åİ»çĹħ": 9396,
      "å®ľåĬł": 9397,
      "åĲ¾åŃĲ": 9398,
      "ä¼¯çĪ¶": 9399,
      "æĹ§å¿Ĺ": 9400,
      "å¿łè´ŀ": 9401,
      "èĥľåħµ": 9402,
      "èľĤ": 9403,
      "æĮģæŀĹç¿»": 9404,
      "æĽ²èµ¦": 9405,
      "æľķä»¥": 9406,
      "ä¸Ńä¹¦éĹ¨ä¸ĭ": 9407,
      "è´¾åĲİ": 9408,
      "èĭ¦ä¹ĭ": 9409,
      "éĢĥå½Ĵ": 9410,
      "çĭĦéģĵ": 9411,
      "çŁ«è¯ı": 9412,
      "éĤ¾å¨Ħ": 9413,
      "çĮľå¿Į": 9414,
      "ä½¿éĺ²åĲıç¿»": 9415,
      "ä¸įä½¿": 9416,
      "ä¸įéģĵ": 9417,
      "åħ¶ä¸ļ": 9418,
      "åŃĲå¤ı": 9419,
      "èĢĮä»¤": 9420,
      "èĢĮéģ£ä¹ĭ": 9421,
      "çİĭåŃĻ": 9422,
      "å°Ĩä¸º": 9423,
      "ä¸Ĭä¹Ł": 9424,
      "äºĶå²ģ": 9425,
      "åľ¨åĮĹ": 9426,
      "æŃ¦éĺ³": 9427,
      "æŃ¤æīĢè°ĵ": 9428,
      "éĥ¡éļĭ": 9429,
      "ä¹ĥä¸ĭ": 9430,
      "ä»Ĭå¤į": 9431,
      "é©¬å¤´": 9432,
      "ä¼Ĺåº¶": 9433,
      "èĭ¥å¤«": 9434,
      "å¿ħæ¬²": 9435,
      "å¿ĥèħ¹": 9436,
      "åŃĹå£«": 9437,
      "åºľäºĭ": 9438,
      "ä¸įèĥ½åħĭ": 9439,
      "åĶĲåİ¯": 9440,
      "çķĻå¿ĥ": 9441,
      "åĹ£çİĭ": 9442,
      "éĽĨè§£å¦Ĥæ·³æĽ°": 9443,
      "æ¯Ķå¿ħ": 9444,
      "è¢Ńå°ģ": 9445,
      "åŃ£æ°ı": 9446,
      "è¿ŀåħµ": 9447,
      "é¹ĳ": 9448,
      "æľ«å¹´": 9449,
      "ç¾İäºº": 9450,
      "äºĮåįĥä½Ļäºº": 9451,
      "äºīä¹ĭ": 9452,
      "ç«¯éĹ¨": 9453,
      "æĪĲéĥ½çİĭ": 9454,
      "ä¹ĭé¦ĸ": 9455,
      "ä»¥è°¢": 9456,
      "åħ¶ä»¤": 9457,
      "çİĭçİĭ": 9458,
      "è°į": 9459,
      "åĩĭ": 9460,
      "åħµå°ĳ": 9461,
      "åħµè´¥": 9462,
      "çļĨä»¥ä¸º": 9463,
      "æĹ¥åº¦": 9464,
      "è¯¸æĽ¹": 9465,
      "ç¦ĩ": 9466,
      "äºĳä½ķ": 9467,
      "é¡¶": 9468,
      "é½Ĳå·ŀ": 9469,
      "æłª": 9470,
[...]
